<pad>	0
<unk>	0
<s>	0
</s>	0
,	-2.96963
.	-3.22956
▁the	-3.57975
▁	-3.98983
▁to	-4.28569
▁of	-4.31696
▁and	-4.37298
s	-4.49536
▁in	-4.59642
的	-4.63308
▁a	-4.71602
-	-5.04727
▁that	-5.04731
▁is	-5.09196
'	-5.1287
▁—	-5.25547
▁for	-5.43626
和	-5.4412
▁–	-5.66246
▁it	-5.73942
▁be	-5.74259
、	-5.79145
▁as	-5.7936
▁on	-5.86355
▁are	-5.87002
ing	-5.87446
▁with	-5.91401
在	-5.95826
▁but	-5.97381
▁by	-5.98589
▁not	-6.02068
▁has	-6.03668
▁have	-6.07563
)	-6.09202
▁will	-6.14763
▁this	-6.21452
▁from	-6.25733
▁more	-6.28525
(	-6.30896
▁its	-6.32733
▁their	-6.34188
▁"	-6.3619
ed	-6.37908
是	-6.38967
▁china	-6.40456
▁an	-6.41523
了	-6.46165
“	-6.487
▁us	-6.49112
▁at	-6.50064
▁they	-6.50357
:	-6.50976
▁would	-6.53598
▁or	-6.61256
▁was	-6.61424
年	-6.62351
▁countries	-6.65851
▁than	-6.67115
对	-6.68092
▁world	-6.68654
▁which	-6.69892
而	-6.70387
将	-6.72423
;	-6.73568
▁(	-6.74467
▁can	-6.77165
ly	-6.77492
"	-6.80851
▁economic	-6.83506
中	-6.85501
?	-6.88433
▁new	-6.88712
▁one	-6.89247
”	-6.91137
▁all	-6.93096
▁we	-6.94972
▁been	-6.95009
▁但	-6.96912
▁if	-6.97186
与	-6.97241
也	-6.97581
美国	-6.98029
▁growth	-7.02238
为	-7.02605
中国	-7.03278
▁global	-7.0457
▁there	-7.07636
▁so	-7.08725
▁europe	-7.09401
d	-7.09614
▁”	-7.10995
▁only	-7.12595
▁even	-7.13613
▁should	-7.13627
▁other	-7.13942
▁such	-7.1442
▁government	-7.1453
▁also	-7.1462
但	-7.16016
▁could	-7.17706
▁no	-7.19658
▁when	-7.19862
▁who	-7.20084
▁most	-7.20695
其	-7.20909
▁about	-7.21289
▁now	-7.21925
▁people	-7.22634
▁many	-7.2377
▁these	-7.23956
·	-7.2429
▁political	-7.2487
▁financial	-7.25554
▁在	-7.26826
并	-7.2699
▁european	-7.28359
▁some	-7.30801
▁eu	-7.32906
从	-7.33204
▁years	-7.33799
政府	-7.3416
以及	-7.34948
▁over	-7.35447
▁what	-7.3622
▁his	-7.37319
有	-7.37344
不	-7.37519
▁economy	-7.38052
以	-7.38342
▁were	-7.38371
▁may	-7.40648
被	-7.41133
▁country	-7.41387
已经	-7.41833
▁)	-7.42532
或	-7.42784
▁must	-7.42913
都	-7.43501
上	-7.43884
欧洲	-7.44334
地	-7.45441
▁do	-7.4597
他们	-7.4613
国家	-7.46873
经济	-7.46913
▁%	-7.4697
▁policy	-7.4836
t	-7.48602
▁international	-7.49258
e	-7.49532
来	-7.49791
问题	-7.50463
▁while	-7.50869
▁out	-7.51382
时	-7.51496
我们	-7.51931
一个	-7.52335
▁he	-7.52707
人	-7.53475
▁much	-7.53822
▁up	-7.53829
▁time	-7.54327
▁like	-7.55542
▁into	-7.55784
▁long	-7.56793
▁crisis	-7.56976
可以	-7.57339
▁states	-7.57373
▁had	-7.58876
会	-7.58968
需要	-7.61891
▁because	-7.62144
因为	-7.6275
到	-7.6375
▁year	-7.63834
▁them	-7.64033
▁power	-7.64406
▁public	-7.648
▁after	-7.65474
▁united	-7.65652
▁those	-7.67496
▁two	-7.68464
可能	-7.68811
▁market	-7.70164
▁first	-7.70637
就	-7.70965
这一	-7.71529
政策	-7.72041
."	-7.72618
欧盟	-7.72828
▁well	-7.72861
新	-7.73951
这些	-7.74061
让	-7.74357
▁chinese	-7.75353
后	-7.75856
▁just	-7.76372
▁america	-7.76453
政治	-7.77652
▁need	-7.7773
他	-7.77734
所	-7.78755
▁between	-7.79031
▁president	-7.80432
▁development	-7.80767
▁trade	-7.81009
▁investment	-7.81036
▁how	-7.82362
▁i	-7.83335
▁last	-7.83563
▁change	-7.83684
▁debt	-7.84666
▁our	-7.85108
▁bank	-7.85634
▁但是	-7.85721
向	-7.85979
▁war	-7.85996
通过	-7.8606
—	-7.86189
▁today	-7.8624
▁both	-7.86779
▁state	-7.86901
▁far	-7.86973
▁any	-7.87294
▁national	-7.8734
▁system	-7.87453
▁leaders	-7.87525
全球	-7.87585
性	-7.87912
没有	-7.88954
▁central	-7.89974
▁through	-7.90034
大	-7.90101
这	-7.90269
▁banks	-7.90284
它	-7.9074
增长	-7.91028
▁high	-7.91306
等	-7.91768
支持	-7.92429
▁against	-7.93099
比	-7.93577
▁而	-7.93944
市场	-7.94044
要	-7.94154
n	-7.94303
正在	-7.95133
更	-7.95607
▁markets	-7.95811
必须	-7.96175
▁way	-7.96773
y	-7.97095
投资	-7.97548
者	-7.9772
能	-7.97745
▁example	-7.98189
月	-7.98196
▁energy	-7.98235
▁interest	-7.98381
▁less	-7.98605
▁capital	-7.98762
进行	-7.99139
▁where	-7.99458
用	-7.99522
▁own	-7.99798
▁governments	-7.99808
▁union	-7.99877
能够	-7.99978
▁too	-8.00417
世界	-8.00602
▁become	-8.00682
▁since	-8.0093
▁如果	-8.01223
▁under	-8.01495
▁recent	-8.01688
▁事实上	-8.01726
▁make	-8.01863
▁indeed	-8.02003
▁still	-8.02053
▁yet	-8.02624
▁rates	-8.03045
▁foreign	-8.03213
包括	-8.04476
▁support	-8.04483
▁health	-8.04559
实现	-8.04694
gdp	-8.04858
还	-8.04902
计划	-8.04967
al	-8.05773
▁climate	-8.06882
▁economies	-8.07117
它们	-8.07789
▁“	-8.08236
▁does	-8.08908
c	-8.09182
▁social	-8.0933
▁future	-8.09408
▁important	-8.09566
▁already	-8.09612
▁policies	-8.09612
20	-8.09717
er	-8.09751
▁real	-8.09909
一	-8.10212
英国	-8.10561
认为	-8.11231
▁gdp	-8.11425
却	-8.1284
▁un	-8.13395
▁rate	-8.14526
▁large	-8.1473
▁security	-8.15242
▁current	-8.15358
▁without	-8.15713
▁same	-8.17348
应该	-8.1759
▁russia	-8.17635
提供	-8.18061
▁monetary	-8.18236
▁因此	-8.18302
▁fiscal	-8.19257
最	-8.19328
银行	-8.19396
▁billion	-8.19562
▁risk	-8.19583
要求	-8.19803
于	-8.20735
▁此外	-8.20981
则	-8.21096
term	-8.21451
前	-8.22003
▁africa	-8.22014
发展	-8.22321
解决	-8.22406
▁result	-8.22453
社会	-8.22736
▁trump	-8.22741
▁end	-8.2293
我	-8.2314
增加	-8.23163
▁likely	-8.23185
▁being	-8.23513
方面	-8.2361
▁another	-8.23985
▁might	-8.24375
a	-8.24495
▁major	-8.24533
成为	-8.24579
由	-8.2475
▁american	-8.25178
▁work	-8.25207
▁problem	-8.25255
影响	-8.25351
▁take	-8.25608
开始	-8.25839
▁asia	-8.26747
高	-8.27114
下	-8.27424
改革	-8.27503
▁low	-8.27546
▁given	-8.27767
▁prices	-8.27811
企业	-8.2789
把	-8.27981
那些	-8.28083
无法	-8.28322
说	-8.28375
▁better	-8.28592
▁made	-8.29109
地区	-8.29403
公司	-8.30525
危机	-8.3069
因此	-8.30709
▁military	-8.30772
▁good	-8.31161
▁use	-8.31466
▁eurozone	-8.31525
▁including	-8.31673
▁help	-8.31826
▁india	-8.32006
▁fact	-8.32126
风险	-8.3238
▁human	-8.32421
▁then	-8.3259
给	-8.32703
▁demand	-8.32793
导致	-8.32994
▁cannot	-8.33667
一些	-8.33931
▁right	-8.34422
▁d	-8.34525
g	-8.34749
现在	-8.35079
▁japan	-8.35789
的国家	-8.36352
如果	-8.3659
▁three	-8.36674
▁tax	-8.37012
▁course	-8.37304
更加	-8.37744
▁did	-8.37957
▁south	-8.38057
▁这	-8.38258
▁million	-8.38289
es	-8.38311
▁often	-8.38413
,"	-8.38775
▁among	-8.39021
▁companies	-8.391
▁rather	-8.39576
▁germany	-8.40406
▁before	-8.40485
着	-8.40518
人们	-8.40671
1	-8.40699
▁part	-8.40799
目标	-8.42131
▁re	-8.4269
▁whether	-8.42843
2	-8.43134
获得	-8.43146
▁order	-8.43355
许多	-8.43813
及	-8.43852
▁next	-8.43903
▁approach	-8.44064
i	-8.44083
其他	-8.44436
▁around	-8.44506
国际	-8.44757
挑战	-8.44814
这种	-8.45426
那么	-8.4571
▁back	-8.45783
▁past	-8.45791
▁institutions	-8.45889
▁moreover	-8.46043
▁very	-8.46061
作为	-8.46299
▁nuclear	-8.4666
尽管	-8.46795
多	-8.46819
拥有	-8.47118
▁private	-8.47173
▁income	-8.47261
继续	-8.47433
长期	-8.475
所有	-8.47527
还是	-8.47678
▁increase	-8.47718
▁least	-8.48014
甚至	-8.48034
▁why	-8.48138
的人	-8.4826
这个	-8.48464
▁during	-8.48517
▁labor	-8.48758
▁rise	-8.48986
去	-8.49175
▁party	-8.49253
▁role	-8.49329
▁developing	-8.49349
债务	-8.49775
这样的	-8.49891
▁toward	-8.50616
▁中国	-8.50823
并且	-8.50959
▁put	-8.51476
▁second	-8.51519
▁education	-8.51791
实施	-8.5223
采取	-8.52436
▁尽管	-8.52726
出	-8.52754
▁short	-8.52822
来自	-8.52837
▁further	-8.5284
▁region	-8.53135
▁down	-8.53421
来说	-8.53784
▁domestic	-8.53787
战略	-8.53925
▁higher	-8.54062
▁business	-8.54439
▁few	-8.54727
▁inflation	-8.55102
▁case	-8.5522
▁needs	-8.55225
就是	-8.55267
工作	-8.55386
无	-8.55389
in	-8.55483
▁middle	-8.55651
▁money	-8.5575
世纪	-8.5578
▁problems	-8.55932
▁little	-8.56048
一样	-8.56272
主要	-8.56282
未来	-8.56452
任何	-8.56486
▁emerging	-8.56496
之	-8.56736
选择	-8.56798
提高	-8.57017
合作	-8.57017
日本	-8.57026
德国	-8.57093
决定	-8.57165
▁sector	-8.57408
仍然	-8.57475
而不是	-8.57749
▁however	-8.57806
减少	-8.57828
▁services	-8.58309
可	-8.58323
使用	-8.58462
民主	-8.59079
▁clear	-8.59216
美元	-8.59219
▁needed	-8.59386
得	-8.59791
▁great	-8.6011
又	-8.60189
▁especially	-8.60337
▁remains	-8.60435
希望	-8.60476
▁east	-8.6049
如此	-8.60592
改变	-8.60727
技术	-8.60827
▁continue	-8.60891
▁reform	-8.61077
▁process	-8.61095
自	-8.61348
▁though	-8.61517
▁price	-8.619
▁costs	-8.62081
▁local	-8.62208
俄罗斯	-8.62289
领导人	-8.62356
▁strong	-8.62569
▁key	-8.62629
新的	-8.62729
▁come	-8.62758
像	-8.63074
总统	-8.63099
r	-8.63162
▁democracy	-8.63418
建立	-8.63458
▁remain	-8.63476
▁thus	-8.63488
▁non	-8.63712
▁spending	-8.63948
保护	-8.64035
机构	-8.64191
印度	-8.6423
过	-8.64368
▁free	-8.644
se	-8.64587
▁efforts	-8.64969
p	-8.65197
▁hard	-8.65222
▁means	-8.65271
货币	-8.65333
b	-8.65338
行动	-8.65452
似乎	-8.6553
成本	-8.65694
▁almost	-8.65977
▁within	-8.66036
只有	-8.6618
▁decades	-8.66259
▁currency	-8.66289
改善	-8.6665
非洲	-8.66838
最终	-8.66891
▁point	-8.66891
安全	-8.67013
而且	-8.67136
▁increasingly	-8.67245
▁iran	-8.67469
▁infrastructure	-8.6767
当	-8.67685
5	-8.67735
如何	-8.67918
▁oil	-8.67977
▁lower	-8.68008
3	-8.68136
o	-8.68296
▁比如	-8.68326
▁per	-8.68373
如	-8.68705
▁growing	-8.68839
国	-8.68843
自己	-8.69114
▁reforms	-8.69362
目前	-8.694
不是	-8.69449
▁rights	-8.69495
▁minister	-8.69772
▁ago	-8.69916
▁longer	-8.69985
降低	-8.70122
the	-8.70339
▁cost	-8.7039
▁women	-8.70423
欧元区	-8.70632
控制	-8.70642
▁potential	-8.70681
▁strategy	-8.70894
也是	-8.71109
接受	-8.71111
▁recently	-8.71122
espite	-8.71146
▁obama	-8.71234
里	-8.71236
承诺	-8.71463
行为	-8.71722
▁resources	-8.71778
同时	-8.71785
最近	-8.72008
▁share	-8.72115
从而	-8.72137
不会	-8.72244
《	-8.72624
▁law	-8.72695
).	-8.72728
▁poor	-8.72967
▁every	-8.72987
▁different	-8.73327
▁challenges	-8.73381
特朗普	-8.7347
▁progress	-8.73568
组织	-8.73763
▁itself	-8.73848
成功	-8.7402
收入	-8.74425
▁best	-8.74565
▁common	-8.74938
▁greater	-8.75046
▁population	-8.75249
▁他们	-8.7543
▁access	-8.75684
▁benefits	-8.75865
非常	-8.75891
威胁	-8.75996
内	-8.76017
金融	-8.76092
▁workers	-8.76305
▁question	-8.76365
▁credit	-8.76374
▁member	-8.76511
▁美国	-8.76533
不同	-8.76802
能源	-8.76803
▁investors	-8.76835
▁uk	-8.7685
▁seems	-8.7687
年的	-8.76916
协议	-8.77012
该	-8.77121
▁particularly	-8.7725
管理	-8.77264
使	-8.77346
▁start	-8.77356
▁这些	-8.77357
亚洲	-8.77444
并不	-8.77514
▁enough	-8.77576
▁difficult	-8.77632
ers	-8.77697
▁others	-8.77718
▁impact	-8.77834
▁agreement	-8.77912
帮助	-8.77954
发生	-8.78016
日	-8.78028
制度	-8.7807
推动	-8.78077
▁当然	-8.78142
▁stability	-8.78671
▁peace	-8.78806
好	-8.7886
国内	-8.78878
▁我们	-8.78885
对于	-8.79024
教育	-8.79136
▁each	-8.79327
▁you	-8.79387
▁set	-8.79536
更多	-8.79684
完全	-8.79716
亿美元	-8.79819
▁according	-8.79919
移民	-8.79928
▁citizens	-8.80077
▁exchange	-8.80089
环境	-8.80438
▁say	-8.80446
一直	-8.80449
和其他	-8.80512
研究	-8.80794
▁value	-8.80871
▁euro	-8.80945
个	-8.80988
▁terms	-8.81015
措施	-8.81047
▁election	-8.81066
▁france	-8.81103
系统	-8.81256
▁finance	-8.81524
▁level	-8.81588
或者	-8.81763
▁data	-8.81838
▁interests	-8.82119
他们的	-8.82166
保持	-8.82177
re	-8.82187
▁risks	-8.8219
关注	-8.82243
▁my	-8.82328
▁number	-8.82383
是否	-8.82506
贸易	-8.82518
出现	-8.82581
》	-8.82791
化	-8.82844
▁reason	-8.82845
▁half	-8.82982
中国的	-8.83168
▁children	-8.83218
6	-8.83247
严重	-8.83283
▁her	-8.83284
▁ensure	-8.83505
斯	-8.83532
一种	-8.83689
▁reduce	-8.83882
▁relative	-8.83948
▁anti	-8.84085
战争	-8.84249
利用	-8.8426
▁place	-8.843
▁rising	-8.84319
▁once	-8.84348
▁create	-8.84368
受到	-8.84562
▁korea	-8.84614
非	-8.84829
进一步	-8.85092
▁control	-8.8511
项目	-8.85123
▁provide	-8.85203
▁life	-8.85302
▁used	-8.85432
▁off	-8.85751
▁members	-8.85869
▁home	-8.85902
的话	-8.86104
▁britain	-8.8611
▁never	-8.8611
资金	-8.8617
的情况下	-8.86199
美联储	-8.862
▁fund	-8.8623
造成	-8.8633
关于	-8.86346
资源	-8.86468
正	-8.86472
10	-8.86601
因素	-8.86614
▁如今	-8.86674
存在	-8.86763
之间	-8.86785
自己的	-8.86809
▁north	-8.86855
出口	-8.86943
▁action	-8.86991
具有	-8.87132
▁leadership	-8.87143
▁challenge	-8.87283
▁democratic	-8.87444
的是	-8.87577
▁regional	-8.87615
▁west	-8.87782
▁measures	-8.87794
不能	-8.8785
超过	-8.87851
▁jobs	-8.87923
表明	-8.87986
▁face	-8.88021
or	-8.88272
变化	-8.88288
反对	-8.88348
▁possible	-8.88354
▁rules	-8.88492
历史	-8.88679
▁g	-8.88719
▁force	-8.88839
得到	-8.89
▁research	-8.89376
关系	-8.8939
限制	-8.89422
▁british	-8.89429
结果	-8.89568
▁politics	-8.89695
谈判	-8.897
▁western	-8.89702
西方	-8.89719
▁together	-8.89847
仍	-8.89855
▁fed	-8.90069
▁instead	-8.90152
家庭	-8.90162
可能会	-8.90187
价格	-8.90202
带来	-8.90423
▁serious	-8.90497
人口	-8.9087
▁effective	-8.90965
产生	-8.91018
▁从	-8.9121
▁poverty	-8.91252
▁de	-8.91397
资本	-8.9147
▁true	-8.91471
▁lead	-8.9149
▁food	-8.91576
经济增长	-8.91667
▁ever	-8.91703
▁dollar	-8.91771
服务	-8.9179
已	-8.91812
确保	-8.91841
▁levels	-8.91843
▁know	-8.92044
▁former	-8.92088
法国	-8.92113
9	-8.92146
下降	-8.92248
的问题	-8.92458
▁find	-8.92515
央行	-8.92547
中的	-8.92597
▁across	-8.92627
水平	-8.92753
制定	-8.92812
需求	-8.92947
▁model	-8.92963
▁technology	-8.93147
财政	-8.93176
▁balance	-8.93206
冲突	-8.93226
模式	-8.93255
重要	-8.93304
▁making	-8.93335
▁small	-8.93376
家	-8.9353
机会	-8.93595
▁focus	-8.93694
▁left	-8.938
民众	-8.93831
▁consumption	-8.93946
▁five	-8.93947
4	-8.94042
只是	-8.94443
能力	-8.94663
水	-8.9487
点	-8.94891
▁beyond	-8.95004
各国	-8.95135
的经济	-8.95369
们	-8.95378
伊朗	-8.95402
▁want	-8.95657
▁times	-8.95746
▁post	-8.95871
领域	-8.95887
▁decision	-8.95992
▁budget	-8.96023
▁productivity	-8.96055
▁program	-8.96068
几乎	-8.96279
▁systems	-8.96349
▁conflict	-8.96363
参与	-8.96567
▁2008	-8.96591
▁perhaps	-8.9665
大部分	-8.96792
▁federal	-8.96798
able	-8.96813
人民	-8.96907
▁administration	-8.96948
▁significant	-8.97042
担心	-8.97167
m	-8.97217
▁prime	-8.97252
而是	-8.97317
▁address	-8.97404
即	-8.97426
创新	-8.97634
的时候	-8.97683
▁annual	-8.97852
7	-8.97949
重新	-8.98133
的政策	-8.98144
▁firms	-8.98246
▁go	-8.98272
▁again	-8.98281
▁similar	-8.98313
情况	-8.9838
城市	-8.98384
▁average	-8.9846
▁themselves	-8.98763
▁issues	-8.98785
▁community	-8.9879
▁water	-8.98818
▁increased	-8.99067
▁simply	-8.99097
名	-8.99267
▁policymakers	-8.99271
▁require	-8.9941
▁history	-8.99435
以来	-8.9944
的影响	-8.99538
▁plan	-8.99663
只	-8.99741
低	-8.99765
▁view	-8.99792
联盟	-8.99826
自由	-8.99845
监管	-8.99864
数据	-8.9996
▁deal	-9.0008
▁information	-9.00147
利率	-9.00153
之后	-9.00406
▁early	-9.00442
大量	-9.00485
想	-9.00658
持续	-9.00673
人类	-9.00768
机制	-9.00821
▁young	-9.01088
▁与此同时	-9.01193
▁这一	-9.01301
▁officials	-9.01475
考虑	-9.01613
也许	-9.01614
▁developed	-9.0167
每年	-9.01853
▁当	-9.01896
▁society	-9.01999
不断	-9.02051
▁see	-9.02105
占	-9.02163
作用	-9.02279
▁run	-9.02298
都是	-9.02348
▁sense	-9.02498
▁based	-9.02559
▁environmental	-9.02581
意味着	-9.02665
and	-9.02701
▁believe	-9.02732
美国的	-9.0301
▁until	-9.03015
发现	-9.0303
针对	-9.03134
▁move	-9.03194
▁big	-9.03199
ness	-9.03305
▁single	-9.03364
it	-9.03376
ion	-9.03586
达到	-9.03871
及其	-9.03886
▁cooperation	-9.03888
▁decade	-9.03917
选举	-9.03985
和平	-9.04055
ic	-9.04136
共同	-9.04208
是一个	-9.04249
▁working	-9.04509
▁threat	-9.04547
on	-9.04714
拉	-9.04806
气候变化	-9.04825
to	-9.04862
an	-9.04903
日益	-9.04945
消费	-9.0495
令	-9.05081
th	-9.0521
投资者	-9.05407
将会	-9.05457
▁several	-9.05478
融资	-9.05507
▁lack	-9.05512
▁sustainable	-9.05531
同样	-9.05704
▁commission	-9.0574
欧洲央行	-9.06012
▁israel	-9.06018
时间	-9.06068
▁nations	-9.06111
的政治	-9.06113
▁century	-9.06199
预测	-9.06227
稳定	-9.06233
但是	-9.06273
自身	-9.06279
▁third	-9.06429
▁open	-9.06458
▁able	-9.06525
希腊	-9.06573
近	-9.06743
价值	-9.06886
力	-9.06927
▁issue	-9.07346
援助	-9.07373
扩大	-9.07393
力量	-9.07473
▁advanced	-9.07484
▁get	-9.07497
欧元	-9.07602
▁regime	-9.07616
法	-9.07723
▁deficit	-9.07823
2008	-9.07842
▁forces	-9.07895
面临	-9.07932
8	-9.07994
经济学家	-9.07995
你	-9.0801
▁care	-9.08017
万	-9.08043
法律	-9.08075
做出	-9.0837
某些	-9.0842
▁total	-9.08572
▁pay	-9.08658
▁相反	-9.08797
▁four	-9.08814
尔	-9.08864
▁areas	-9.08885
▁rule	-9.08918
受	-9.09057
什么	-9.09061
信息	-9.09091
运动	-9.09138
▁seem	-9.09217
贷款	-9.09334
▁rest	-9.09467
▁conditions	-9.09481
年代	-9.09524
▁effects	-9.09674
▁led	-9.09744
▁consider	-9.09781
就会	-9.09818
▁pressure	-9.09849
▁turn	-9.09876
▁ecb	-9.09951
30	-9.09964
▁banking	-9.09966
▁opportunity	-9.10235
由于	-9.10385
/	-9.10406
▁largest	-9.10483
竞争	-9.10511
如今	-9.10526
事件	-9.10589
才能	-9.10811
▁industry	-9.10814
之间的	-9.10931
行业	-9.11035
▁position	-9.11047
革命	-9.11151
体系	-9.11298
小	-9.11302
▁employment	-9.11409
资产	-9.11439
▁media	-9.11492
out	-9.1173
▁day	-9.1173
▁act	-9.11882
进入	-9.11891
试图	-9.11928
▁response	-9.1198
▁parties	-9.12114
传统	-9.12238
主义	-9.12313
再	-9.12454
l	-9.12509
▁success	-9.1259
▁boost	-9.12634
▁supply	-9.12638
特别是	-9.12686
▁structural	-9.12704
▁他	-9.12767
调整	-9.12783
相对	-9.12841
缺乏	-9.12868
的新	-9.12896
实际	-9.129
▁politicians	-9.12997
▁asian	-9.13003
并没有	-9.13007
大规模	-9.13075
▁production	-9.13122
▁changes	-9.13274
维持	-9.13338
en	-9.13347
比如	-9.13392
▁massive	-9.13449
应对	-9.13527
通胀	-9.1353
部门	-9.13733
▁environment	-9.13796
破坏	-9.13863
▁innovation	-9.13892
那样	-9.13967
▁full	-9.14052
反	-9.14094
▁done	-9.14121
权力	-9.14124
土耳其	-9.14162
因	-9.14206
▁capacity	-9.14265
个人	-9.14309
▁she	-9.14342
阻止	-9.14486
指出	-9.14935
▁african	-9.15013
做	-9.15022
▁having	-9.15068
▁requires	-9.15129
迅速	-9.15322
▁trillion	-9.15413
以色列	-9.15416
当前	-9.15453
▁consequences	-9.15593
▁emissions	-9.15666
促进	-9.15687
▁随着	-9.1575
且	-9.15754
生产	-9.15806
吗	-9.15984
▁shift	-9.15999
看	-9.16004
▁economists	-9.1606
德	-9.16285
▁虽然	-9.16329
▁italy	-9.16382
▁turkey	-9.1658
▁defense	-9.16581
coming	-9.16635
▁strategic	-9.16663
▁created	-9.16893
这样	-9.17015
一场	-9.17033
▁effort	-9.17065
上述	-9.17185
based	-9.1734
▁period	-9.17634
f	-9.17641
▁prevent	-9.17773
▁always	-9.17781
▁keep	-9.17869
活动	-9.17926
▁aid	-9.17978
▁think	-9.18023
▁fear	-9.18312
长	-9.18321
▁nearly	-9.18469
▁top	-9.18492
之前	-9.18563
▁campaign	-9.18674
直接	-9.18745
▁land	-9.18782
▁ukraine	-9.18818
▁exports	-9.18956
▁首先	-9.19131
▁voters	-9.19273
建设	-9.1938
market	-9.19404
▁unemployment	-9.19406
h	-9.19423
过去	-9.19462
▁general	-9.19673
▁我	-9.19706
▁taken	-9.19907
▁hope	-9.1999
而言	-9.2005
更多的	-9.20155
外	-9.20309
▁influence	-9.20317
结束	-9.20368
原因	-9.20412
▁leading	-9.20433
▁report	-9.20509
▁failed	-9.2052
头	-9.2065
交易	-9.20677
50	-9.20964
▁decline	-9.21105
一项	-9.21111
公众	-9.21174
▁greece	-9.21265
创造	-9.21345
子	-9.21423
ity	-9.21463
▁alone	-9.21686
▁arab	-9.21736
▁iraq	-9.2177
▁improve	-9.21802
量	-9.21895
▁finally	-9.21942
▁20	-9.21993
规则	-9.22151
▁brexit	-9.22163
▁doing	-9.22271
▁authorities	-9.22313
k	-9.2237
▁americans	-9.22425
执行	-9.22522
▁fall	-9.22527
事	-9.22625
▁bush	-9.22738
起	-9.22824
委员会	-9.22933
▁job	-9.22959
更为	-9.23015
▁cause	-9.23045
遏制	-9.23058
利益	-9.23098
▁called	-9.23239
▁funds	-9.23283
方法	-9.23316
▁said	-9.23374
提出	-9.23443
她	-9.23536
全球化	-9.2355
儿童	-9.23623
承认	-9.2366
▁build	-9.23776
相当	-9.23797
▁agenda	-9.23799
预算	-9.23807
刺激	-9.23943
▁news	-9.24101
▁self	-9.24129
发展中国家	-9.24195
鼓励	-9.24228
▁french	-9.2425
条件	-9.24384
▁cities	-9.24661
有效	-9.2477
随着	-9.24799
意大利	-9.24916
同	-9.24956
特	-9.24968
应当	-9.24978
▁largely	-9.25002
媒体	-9.25012
▁expected	-9.25026
方式	-9.25121
难以	-9.25133
努力	-9.2516
避免	-9.2521
责任	-9.25291
▁form	-9.2535
u	-9.25378
知道	-9.25511
▁inequality	-9.25525
▁although	-9.25528
联合国	-9.25535
▁revolution	-9.25549
▁term	-9.2566
全世界	-9.25674
▁play	-9.25725
▁它	-9.25726
▁recession	-9.25753
他的	-9.26035
▁particular	-9.26066
相信	-9.26196
ation	-9.26227
报告	-9.26321
▁group	-9.26403
巴西	-9.26404
▁official	-9.26553
不仅	-9.26657
其中	-9.26682
ism	-9.26751
相关	-9.26753
▁achieve	-9.27003
▁technologies	-9.2706
损失	-9.27166
▁rapid	-9.27168
▁experience	-9.27235
方案	-9.2734
▁civil	-9.27408
重	-9.27449
内部	-9.2747
▁council	-9.27503
会议	-9.27797
▁sure	-9.27841
选民	-9.27853
繁荣	-9.27915
▁integration	-9.27972
▁projects	-9.27993
▁assets	-9.28045
独立	-9.28076
▁rich	-9.28173
状况	-9.28294
军事	-9.28319
▁increasing	-9.28363
地位	-9.28453
▁2015	-9.28484
▁lives	-9.28615
▁opportunities	-9.2862
▁ways	-9.28644
后果	-9.28907
权	-9.28921
往往	-9.29036
▁natural	-9.29037
▁values	-9.2907
压力	-9.29089
▁goods	-9.29102
气候	-9.29141
▁brazil	-9.29177
基本	-9.29241
▁london	-9.29295
▁governance	-9.29344
▁leader	-9.29355
▁makes	-9.29365
▁wealth	-9.29542
还有	-9.29607
生	-9.29653
依然	-9.298
▁began	-9.2981
用于	-9.29813
▁worse	-9.29837
▁powerful	-9.29854
▁kingdom	-9.29976
▁close	-9.29982
官员	-9.3001
▁欧洲	-9.3005
▁ba	-9.30102
令人	-9.30107
科学	-9.30176
标准	-9.30231
马	-9.30261
by	-9.30284
支出	-9.30347
宣布	-9.30355
公民	-9.3042
▁owing	-9.30434
as	-9.30446
应	-9.30449
▁industrial	-9.30455
▁old	-9.30539
乌克兰	-9.30571
总	-9.30621
▁stock	-9.30735
ist	-9.30816
▁ability	-9.311
▁然而	-9.31127
▁avoid	-9.31178
▁months	-9.3122
▁imf	-9.31258
医疗	-9.31265
▁modern	-9.31325
15	-9.31384
之一	-9.31409
▁step	-9.31563
▁对	-9.31696
理解	-9.31739
▁bad	-9.31756
其他国家	-9.31845
▁export	-9.31863
▁account	-9.32042
z	-9.32073
▁lost	-9.32103
▁main	-9.32169
▁bonds	-9.32183
▁fundamental	-9.32205
▁1990	-9.3223
巨大的	-9.32269
▁him	-9.32279
▁failure	-9.32327
▁goal	-9.32373
ary	-9.32401
农业	-9.32423
▁programs	-9.32479
规模	-9.3266
公开	-9.32781
▁idea	-9.32795
▁ten	-9.32846
▁raise	-9.32895
▁traditional	-9.32933
▁bring	-9.33033
▁look	-9.33053
▁maintain	-9.33094
▁later	-9.33105
重大	-9.33165
基于	-9.33175
▁debate	-9.33187
▁evidence	-9.33213
手段	-9.33281
le	-9.33365
▁german	-9.33446
up	-9.33446
▁congress	-9.33448
▁co	-9.33468
允许	-9.33527
▁york	-9.33684
▁behind	-9.3394
明确	-9.33951
▁recovery	-9.33952
拒绝	-9.33975
▁along	-9.34133
工人	-9.34137
▁investments	-9.34317
加强	-9.34391
经济体	-9.34413
虽然	-9.34456
约	-9.3463
数	-9.3472
▁taking	-9.34849
进步	-9.34886
关键	-9.34912
▁away	-9.34912
文化	-9.34939
▁russian	-9.34964
▁relations	-9.34976
▁necessary	-9.35111
▁corruption	-9.35143
讨论	-9.35295
▁nor	-9.35306
现实	-9.35337
▁elections	-9.35347
▁violence	-9.35351
▁financing	-9.35384
▁nothing	-9.35386
派	-9.35388
上升	-9.35412
女性	-9.35423
克	-9.35447
▁hold	-9.3546
观点	-9.35483
很多	-9.35579
我们的	-9.35586
显然	-9.356
处理	-9.35613
贫困	-9.35613
▁comes	-9.3573
▁xi	-9.35756
▁found	-9.35854
利	-9.35986
的能力	-9.36016
产品	-9.36281
所谓的	-9.36285
成	-9.36347
imf	-9.36417
▁现在	-9.36443
天	-9.36446
▁highly	-9.3656
▁return	-9.36565
year	-9.36659
▁reserve	-9.36727
▁either	-9.36802
▁treaty	-9.36811
强调	-9.37111
开发	-9.37223
2015	-9.37244
▁probab	-9.37297
这一点	-9.37305
▁groups	-9.37554
至	-9.37558
▁gas	-9.37585
曾	-9.37628
决策	-9.37654
现代	-9.37743
▁extreme	-9.37802
网络	-9.37946
再次	-9.37982
即使	-9.3812
▁external	-9.38271
期	-9.38313
全球经济	-9.38382
▁syria	-9.3844
的目标	-9.38574
▁meeting	-9.38653
核	-9.38654
▁2010	-9.38702
变得	-9.38739
难民	-9.3875
▁benefit	-9.38788
▁status	-9.38816
叙利亚	-9.38855
▁attention	-9.39018
▁wrong	-9.39018
11	-9.3914
汇率	-9.39177
▁clearly	-9.39272
过度	-9.39445
心	-9.39467
▁allow	-9.39477
外国	-9.39564
保证	-9.39613
才	-9.39614
真正	-9.39616
健康	-9.39894
▁month	-9.3994
▁sea	-9.40036
▁asset	-9.40087
12	-9.40139
埃及	-9.40144
▁majority	-9.40148
▁contrast	-9.40272
90	-9.40311
▁putin	-9.40318
▁kind	-9.40419
▁solution	-9.40461
▁following	-9.40491
▁give	-9.40515
治理	-9.40528
▁毕竟	-9.40578
▁things	-9.40661
形成	-9.40674
▁protect	-9.40684
评估	-9.40685
美国人	-9.40706
rate	-9.4074
ive	-9.40817
部分	-9.40925
▁establish	-9.40936
▁actually	-9.41061
▁develop	-9.41065
最大的	-9.41186
程度	-9.41215
强化	-9.41385
▁using	-9.41418
ma	-9.41461
工具	-9.41527
专家	-9.41529
▁competition	-9.41541
▁fight	-9.41902
▁legal	-9.42015
▁taxes	-9.4212
分	-9.42146
▁corporate	-9.4231
呢	-9.4231
▁popular	-9.42322
▁hand	-9.4233
越来越	-9.42373
▁coming	-9.42383
寻求	-9.42445
并非	-9.42459
只能	-9.42492
行	-9.42531
▁reach	-9.4261
领导	-9.42846
▁path	-9.42864
很	-9.43031
▁digital	-9.43085
生活	-9.43109
▁reality	-9.43123
消费者	-9.4318
▁above	-9.43345
▁me	-9.43591
▁renminbi	-9.43605
平衡	-9.43611
▁here	-9.43666
led	-9.43697
▁larger	-9.43756
▁situation	-9.43791
▁movement	-9.43808
▁由于	-9.43846
上的	-9.43903
▁living	-9.43913
▁soon	-9.43958
本	-9.44186
▁individual	-9.44222
至少	-9.44261
中东	-9.4427
认识到	-9.44312
▁meanwhile	-9.44391
基础设施	-9.44497
▁egypt	-9.44649
▁manufacturing	-9.44654
储蓄	-9.44693
石油	-9.447
▁cut	-9.44706
的风险	-9.44755
▁而且	-9.4481
度	-9.44835
决策者	-9.44849
发达国家	-9.44955
率	-9.45158
有关	-9.45214
▁reducing	-9.45236
▁project	-9.45286
▁include	-9.45311
依赖	-9.45374
▁huge	-9.45448
▁carbon	-9.45457
▁science	-9.45486
三	-9.45489
▁seen	-9.45503
▁refugees	-9.45523
▁organization	-9.45579
ra	-9.45609
正是	-9.45735
▁house	-9.45829
亿	-9.45936
治疗	-9.45981
▁amount	-9.46026
面	-9.46088
▁vote	-9.46095
▁limited	-9.46107
失败	-9.46322
真正的	-9.46452
不可能	-9.46498
▁solutions	-9.46625
货币政策	-9.46646
该国	-9.46662
各	-9.46723
▁understand	-9.46758
十分	-9.46903
▁cases	-9.47144
▁generation	-9.47244
人民币	-9.47289
▁decisions	-9.47289
▁meet	-9.47322
▁call	-9.47388
奥巴马	-9.4741
当局	-9.4743
左右	-9.47514
▁mean	-9.47523
外交	-9.47617
代表	-9.47775
▁commitment	-9.47842
▁vision	-9.47871
回	-9.48003
也会	-9.48047
投票	-9.48062
▁globalization	-9.48096
▁elsewhere	-9.4814
手	-9.48238
called	-9.4835
▁easy	-9.48413
间	-9.48452
根据	-9.48481
削减	-9.48489
▁center	-9.48577
income	-9.48763
▁late	-9.48764
▁transition	-9.48931
打	-9.48955
本身	-9.49104
▁entire	-9.49122
财富	-9.49179
面对	-9.49208
▁freedom	-9.49279
或许	-9.4933
us	-9.49333
巨大	-9.49339
有可能	-9.49491
衰退	-9.49564
曾经	-9.49728
朝鲜	-9.49758
时代	-9.49866
债券	-9.49876
▁push	-9.50064
▁businesses	-9.50128
有助于	-9.50196
▁weak	-9.50373
完成	-9.50416
▁produce	-9.5057
整个	-9.50583
▁disease	-9.5063
80	-9.50639
为了	-9.50667
▁alternative	-9.50668
地方	-9.50671
▁live	-9.50744
公共	-9.50821
▁target	-9.50905
▁technological	-9.50906
赤字	-9.51003
的主要	-9.5105
ment	-9.51058
原则	-9.5106
追求	-9.51061
▁near	-9.51063
▁standards	-9.51111
表示	-9.51173
▁became	-9.51195
▁something	-9.51237
▁really	-9.51388
经济学	-9.51476
▁framework	-9.51478
暴力	-9.51513
▁weapons	-9.51582
▁words	-9.51721
阿根廷	-9.5188
进口	-9.5191
发	-9.51962
▁afghanistan	-9.52034
▁concerns	-9.52131
▁certainly	-9.52135
▁show	-9.52136
韩国	-9.52169
不再	-9.52184
时期	-9.52197
▁air	-9.52222
▁pre	-9.52227
▁age	-9.52458
▁office	-9.5258
危险	-9.52589
也在	-9.52596
▁overall	-9.52622
▁currently	-9.52768
▁最后	-9.52772
▁successful	-9.52782
取得	-9.52837
加	-9.52897
▁目前	-9.53157
▁matter	-9.53212
▁worldwide	-9.53219
▁goals	-9.53399
▁willing	-9.53436
▁established	-9.53511
ro	-9.53647
短期	-9.53673
▁:	-9.53745
▁effect	-9.53784
▁held	-9.53864
的机会	-9.53929
▁paris	-9.54113
那	-9.54135
支付	-9.54166
▁took	-9.54225
▁quickly	-9.5436
阿富汗	-9.54361
▁line	-9.54413
▁leave	-9.54526
购买	-9.54624
疾病	-9.54757
开	-9.54785
共和党	-9.54832
想要	-9.54867
▁six	-9.54902
▁pro	-9.54934
▁creating	-9.54997
▁confidence	-9.55008
▁negotiations	-9.55049
数量	-9.55071
劳动力	-9.55243
▁answer	-9.5526
▁millions	-9.55273
开放	-9.55296
数字	-9.55306
▁products	-9.55372
▁direct	-9.55466
▁fuel	-9.55526
今天	-9.55527
▁households	-9.55564
▁performance	-9.55577
有所	-9.55595
干预	-9.55611
▁2013	-9.55653
▁liberal	-9.55696
走	-9.55705
欧洲的	-9.55882
税收	-9.55954
▁al	-9.55968
▁2014	-9.56014
防止	-9.56047
▁deficits	-9.56118
而非	-9.56137
两	-9.56185
▁consumer	-9.56217
坚持	-9.56226
这类	-9.56251
70	-9.56366
▁industries	-9.56383
▁additional	-9.56723
一位	-9.56729
流	-9.56751
这是	-9.56852
▁side	-9.56952
▁presidential	-9.57048
▁court	-9.57054
▁unlikely	-9.57059
▁source	-9.57138
俄国	-9.57141
税	-9.57166
也将	-9.57177
60	-9.57198
不但	-9.57241
▁发自	-9.57273
▁opposition	-9.57275
▁consensus	-9.57306
▁grow	-9.57326
赢得	-9.5733
▁sovereign	-9.57382
ized	-9.57402
妇女	-9.57407
▁europeans	-9.57471
打击	-9.57516
▁beginning	-9.57577
西	-9.57595
▁prosperity	-9.57601
▁known	-9.57651
▁parliament	-9.57669
▁ahead	-9.57691
两个	-9.57764
逐渐	-9.57765
陷入	-9.57774
▁crises	-9.57875
▁spain	-9.57875
方	-9.5789
积极	-9.57929
▁internet	-9.57941
区	-9.57962
成员国	-9.58136
▁management	-9.58162
预期	-9.58218
▁continent	-9.58254
学	-9.58365
处于	-9.58466
▁latin	-9.58479
就业	-9.58589
通常	-9.58676
大约	-9.58749
极端	-9.58765
▁building	-9.5877
▁complex	-9.58772
分裂	-9.58782
2010	-9.58841
美	-9.58899
州	-9.58911
表现	-9.58929
提供了	-9.58992
明	-9.59005
钱	-9.59059
▁summit	-9.59086
的方式	-9.59161
▁stop	-9.5924
▁scale	-9.59275
入	-9.59309
▁critical	-9.59312
感到	-9.5932
在于	-9.5935
ization	-9.59399
st	-9.59412
▁coal	-9.59432
达成	-9.59444
▁responsibility	-9.59456
▁funding	-9.59459
复苏	-9.59493
▁independence	-9.59519
ting	-9.59563
它们的	-9.59607
腐败	-9.59669
更大的	-9.59684
补贴	-9.59696
▁existing	-9.59797
▁relationship	-9.59806
确定	-9.59816
▁below	-9.59818
▁reserves	-9.59873
党	-9.59948
准备	-9.5996
问题上	-9.59972
恢复	-9.59984
工业	-9.59995
▁pakistan	-9.6003
崩溃	-9.60057
▁powers	-9.60184
▁2012	-9.602
ne	-9.6021
▁continues	-9.60236
领袖	-9.60285
▁basic	-9.60306
▁outside	-9.60347
▁offer	-9.60349
▁tend	-9.60508
▁collapse	-9.60568
年以来	-9.60656
▁sectors	-9.60668
人权	-9.60846
▁essential	-9.60846
▁deep	-9.60913
负责	-9.60942
▁recognize	-9.61001
集团	-9.61035
证明	-9.61042
停止	-9.6124
私人	-9.61274
政权	-9.61299
满足	-9.61367
▁initiative	-9.61371
▁service	-9.61406
类似	-9.61463
▁output	-9.61551
▁everyone	-9.61562
解释	-9.61626
▁school	-9.61647
▁city	-9.61719
▁available	-9.61864
▁behavior	-9.6187
视为	-9.61947
▁institutional	-9.6196
巴基斯坦	-9.61964
制造	-9.62017
▁continued	-9.6209
▁它们	-9.62099
▁对于	-9.62115
▁results	-9.62279
▁thing	-9.62333
▁2016	-9.62446
金融危机	-9.62473
动	-9.62654
多数	-9.6266
议会	-9.62758
本国	-9.62764
推进	-9.62769
▁positive	-9.62806
▁area	-9.62814
▁loans	-9.62842
▁organizations	-9.62866
w	-9.62917
▁equity	-9.62947
一切	-9.62996
扩张	-9.63
▁caused	-9.63022
un	-9.63089
业	-9.63126
▁slow	-9.63178
找到	-9.63238
加入	-9.63263
▁advantage	-9.63278
欧洲人	-9.6332
收益	-9.63433
▁man	-9.63468
过程	-9.63599
▁similarly	-9.6366
▁company	-9.63759
▁study	-9.63759
▁japanese	-9.63932
一次	-9.63951
策略	-9.64008
▁certain	-9.64048
武器	-9.64138
▁factors	-9.6427
更大	-9.64426
金融市场	-9.64453
▁creation	-9.64457
商	-9.64467
▁special	-9.64506
并不是	-9.64517
的结果	-9.64561
roughly	-9.64662
▁欧盟	-9.64669
现有	-9.64678
结构	-9.64738
▁gains	-9.6475
爆发	-9.64775
▁regard	-9.64867
的情况	-9.64951
ce	-9.64958
四	-9.6496
▁road	-9.64967
la	-9.65001
类似的	-9.6501
承担	-9.65074
并未	-9.65224
年轻人	-9.65264
▁1	-9.65319
▁sanctions	-9.65368
▁follow	-9.65401
了解	-9.65489
▁incentives	-9.65516
▁outcome	-9.65551
2%	-9.65603
失去	-9.65615
▁reasons	-9.6564
体制	-9.65643
age	-9.65716
▁don	-9.65782
▁为了	-9.6582
▁forward	-9.65842
▁men	-9.66003
▁ultimately	-9.66048
的关键	-9.66058
▁claim	-9.66082
宗教	-9.66207
▁came	-9.66278
军队	-9.66333
▁helped	-9.66342
呼吁	-9.66672
▁facing	-9.66672
看到	-9.66776
特别	-9.66797
est	-9.6681
政党	-9.66877
总理	-9.66901
▁damage	-9.66919
▁argentina	-9.67001
▁negative	-9.6706
▁stronger	-9.67088
框架	-9.67132
都会	-9.67157
大多数	-9.6721
▁net	-9.67223
▁regulatory	-9.67334
▁stimulus	-9.6739
商业	-9.67416
充分	-9.67445
▁rapidly	-9.67502
工资	-9.67504
▁internal	-9.6758
▁drug	-9.67607
生产率	-9.67625
依靠	-9.67662
的支持	-9.67665
2014	-9.6784
▁choice	-9.67876
袭击	-9.67992
▁eventually	-9.68011
▁washington	-9.68066
▁concern	-9.68093
▁enable	-9.68252
rack	-9.68291
▁unfortunately	-9.68335
▁austerity	-9.684
▁正如	-9.68435
同意	-9.68467
海	-9.68503
的增长	-9.68509
规定	-9.68525
▁counter	-9.68556
▁quality	-9.68614
▁moment	-9.68659
相当于	-9.68696
▁savings	-9.68757
il	-9.68802
▁eastern	-9.68842
信用	-9.68869
ar	-9.68885
金	-9.68891
▁pursue	-9.68915
大学	-9.68977
基金	-9.68989
贬值	-9.69001
相比	-9.69047
▁gap	-9.69233
▁consumers	-9.69257
▁19	-9.69349
反应	-9.69379
权利	-9.69403
▁sub	-9.69424
ch	-9.69586
▁university	-9.69672
▁c	-9.69678
▁models	-9.69701
式	-9.69714
▁expect	-9.69723
之外	-9.69882
▁soviet	-9.69892
▁expansion	-9.70002
社区	-9.70012
▁trust	-9.70051
▁cuts	-9.70089
▁reflect	-9.70108
的一个	-9.70163
强	-9.70186
▁forced	-9.70202
▁saving	-9.70238
条约	-9.70261
▁effectively	-9.70264
▁flows	-9.70265
位	-9.7031
建议	-9.70352
相	-9.70359
▁treatment	-9.70368
is	-9.70406
制	-9.70413
▁warming	-9.70418
优势	-9.70461
之中	-9.70468
▁moral	-9.70547
▁communities	-9.70693
▁housing	-9.70693
▁regulation	-9.70696
到了	-9.70716
▁knowledge	-9.70767
冲击	-9.70778
▁2009	-9.70807
▁independent	-9.70823
▁accept	-9.70907
▁skills	-9.70927
解决方案	-9.70951
40	-9.71009
▁borders	-9.71048
高达	-9.71058
▁let	-9.7107
基础	-9.71152
▁focused	-9.71156
▁1980	-9.71189
汽车	-9.71372
▁impossible	-9.71379
致力于	-9.71379
▁cancer	-9.71381
值得	-9.71384
消除	-9.71395
使得	-9.71417
地球	-9.71469
2013	-9.71606
转向	-9.71611
▁household	-9.71647
趋势	-9.71666
▁personal	-9.71737
很难	-9.71773
效率	-9.71852
有着	-9.71965
▁death	-9.72065
老	-9.7219
▁cultural	-9.7223
动荡	-9.72301
▁dangerous	-9.72305
道	-9.72359
污染	-9.72411
愿意	-9.72427
转型	-9.72463
▁这种	-9.72502
ve	-9.72561
▁allowed	-9.72654
自然	-9.7268
公平	-9.72769
迫使	-9.72782
成员	-9.72905
▁required	-9.72988
常常	-9.73068
互联网	-9.73116
▁authority	-9.73117
的原因	-9.73159
▁那么	-9.73192
不足	-9.73211
at	-9.73224
期间	-9.7326
此	-9.73311
失业	-9.73315
less	-9.73336
account	-9.73361
群体	-9.73417
设计	-9.73476
▁economics	-9.73528
ur	-9.73562
▁suggests	-9.73589
▁attack	-9.73773
放弃	-9.73804
▁basis	-9.7382
▁won	-9.73828
困难	-9.73943
联系	-9.74154
▁intervention	-9.74161
外部	-9.74203
▁shared	-9.74401
18	-9.74412
事实	-9.74469
▁donald	-9.74531
今年	-9.74606
国家的	-9.74619
调查	-9.74625
的利益	-9.74758
▁reached	-9.74761
则是	-9.74889
▁migration	-9.74913
li	-9.74923
▁gain	-9.75113
道德	-9.75327
年前	-9.75327
▁limit	-9.75404
旨在	-9.75559
▁societies	-9.75597
▁points	-9.75671
v	-9.75719
▁w	-9.75738
灾难	-9.75801
西班牙	-9.75912
当地	-9.75919
▁justice	-9.75957
▁fossil	-9.76008
起来	-9.76037
经验	-9.76041
▁immigration	-9.76042
▁但在	-9.76096
▁respect	-9.76244
▁strengthen	-9.76263
▁simple	-9.763
▁activities	-9.76318
▁brought	-9.76318
▁compared	-9.76414
产业	-9.76505
提升	-9.7653
强大的	-9.7659
▁ideas	-9.76593
有利于	-9.76718
制造业	-9.76741
▁urban	-9.76754
▁record	-9.76843
也没有	-9.76852
▁loss	-9.76861
彻底	-9.7688
作	-9.76953
25	-9.76974
▁fully	-9.77033
▁vital	-9.77034
错误	-9.7717
人员	-9.77319
▁promote	-9.77326
▁proposed	-9.7742
el	-9.77506
▁claims	-9.7756
▁communist	-9.77633
好处	-9.7764
分析	-9.77784
▁losses	-9.77799
▁因为	-9.77849
每	-9.77934
恶化	-9.78014
去年	-9.78017
的观点	-9.78052
各种	-9.78087
确实	-9.7812
▁chance	-9.7813
▁contrary	-9.78143
就能	-9.78163
▁18	-9.78177
伊拉克	-9.78197
将在	-9.78228
no	-9.78266
▁burden	-9.78333
协调	-9.78343
破产	-9.78437
▁events	-9.7845
▁$	-9.7847
卡	-9.78473
的全球	-9.7849
联邦	-9.78517
▁direction	-9.78541
▁border	-9.78702
紧缩	-9.78734
▁core	-9.78738
全面	-9.78757
▁manage	-9.78764
仅仅	-9.78783
既	-9.78811
感	-9.78862
▁ground	-9.78878
▁family	-9.78921
怀疑	-9.78941
▁attacks	-9.78942
变革	-9.78995
▁questions	-9.79017
两国	-9.79017
削弱	-9.7903
▁previous	-9.7914
吸引	-9.79143
ri	-9.79169
状态	-9.79387
它的	-9.7943
▁inter	-9.79441
3%	-9.7955
▁matters	-9.79583
▁days	-9.79589
伊斯兰	-9.79589
▁dollars	-9.79694
格	-9.79712
学习	-9.80007
▁committed	-9.80023
▁save	-9.80032
阶段	-9.80046
文	-9.80123
care	-9.80169
▁favor	-9.80191
气	-9.80249
19	-9.80255
▁sources	-9.80278
万亿美元	-9.8028
团结	-9.80351
北约	-9.80369
化石燃料	-9.80377
恐怖主义	-9.80379
▁trading	-9.80466
▁thinking	-9.80527
变	-9.80538
思想	-9.80556
次	-9.8077
的政府	-9.80772
▁commercial	-9.80787
倍	-9.80794
▁widely	-9.80814
效果	-9.8086
达	-9.80929
也可以	-9.80933
所需要的	-9.80957
根本	-9.80985
正式	-9.81033
取决于	-9.81091
▁commodity	-9.81134
要么	-9.81141
▁agreed	-9.81211
主	-9.81238
阿	-9.81307
▁reduced	-9.81352
下跌	-9.81383
的同时	-9.81408
在美国	-9.81479
▁neither	-9.81514
▁secretary	-9.81518
▁unless	-9.81546
2012	-9.81576
2016	-9.81594
▁game	-9.81635
商品	-9.81746
快速	-9.81765
me	-9.81774
事实上	-9.81799
型	-9.8186
▁providing	-9.81896
复杂	-9.81897
▁construction	-9.81898
新闻	-9.81938
谁	-9.81973
批评	-9.82003
排放	-9.82037
所带来的	-9.82056
普遍	-9.82075
路	-9.82094
利润	-9.82117
中心	-9.82118
穆斯林	-9.82128
至关重要	-9.82137
这样做	-9.82176
信贷	-9.82186
▁$1	-9.822
流动性	-9.82209
▁era	-9.82217
▁argue	-9.8223
▁bilateral	-9.82279
▁likewise	-9.8228
▁falling	-9.82408
▁这是	-9.82432
那就是	-9.82437
总是	-9.82454
情绪	-9.82477
国会	-9.82488
▁但这	-9.82488
事务	-9.82535
新兴市场	-9.8256
疫苗	-9.82664
▁september	-9.82689
国际社会	-9.82735
▁allies	-9.82748
▁farmers	-9.82751
▁一个	-9.82828
▁significantly	-9.82933
核武器	-9.82956
▁partners	-9.8298
效应	-9.83019
de	-9.83025
奥	-9.83043
▁》	-9.83049
质疑	-9.83051
▁referendum	-9.83104
线	-9.83185
远	-9.83267
▁例如	-9.8335
问	-9.83382
x	-9.83436
▁nature	-9.83438
▁nato	-9.83443
寻找	-9.83452
▁beijing	-9.83492
机	-9.83543
▁invest	-9.83549
资本主义	-9.8356
▁特别是	-9.83564
▁p	-9.83599
宪法	-9.83622
引发	-9.84062
足够	-9.84082
官方	-9.84142
可以通过	-9.84194
缅甸	-9.84217
▁10%	-9.84239
指标	-9.84278
▁sometimes	-9.84316
平均	-9.84339
▁property	-9.84347
▁expectations	-9.8441
被迫	-9.84423
对其	-9.84448
也有	-9.84478
▁crucial	-9.84493
▁worth	-9.84551
当时	-9.84593
盟友	-9.84599
▁targets	-9.846
▁therefore	-9.84609
▁mexico	-9.84642
▁victory	-9.84682
民粹主义	-9.84692
▁individuals	-9.84706
不可	-9.84797
退出	-9.84833
▁surplus	-9.84979
竞争力	-9.85035
▁vulnerable	-9.85044
▁terrorism	-9.85151
卫生	-9.85184
民主党	-9.85207
▁provided	-9.85227
war	-9.85263
但却	-9.85265
安	-9.85274
▁implement	-9.85332
符合	-9.85333
缺少	-9.85395
▁biggest	-9.85398
这场	-9.85432
巴勒斯坦	-9.85433
▁increases	-9.8545
从未	-9.8571
▁contribute	-9.85712
▁accounts	-9.85733
实力	-9.85783
▁primary	-9.85795
▁membership	-9.85801
以上	-9.85802
的可能性	-9.85812
▁b	-9.85815
▁2007	-9.85815
势力	-9.85822
▁depend	-9.85828
▁islamic	-9.8591
军	-9.85947
难	-9.85982
▁中国的	-9.85985
man	-9.8601
▁trying	-9.86029
峰会	-9.86115
某种	-9.86192
▁vast	-9.86193
▁stable	-9.862
构建	-9.86219
▁aimed	-9.86319
▁ii	-9.86354
人士	-9.8643
方面的	-9.86574
▁agriculture	-9.86593
指责	-9.86594
▁earlier	-9.86594
▁understanding	-9.86621
▁truth	-9.86672
▁child	-9.86686
制裁	-9.8675
sector	-9.8679
面临着	-9.86819
较	-9.86879
▁obvious	-9.8688
一系列	-9.86902
▁同样	-9.86929
的未来	-9.86929
te	-9.8697
rs	-9.86987
▁transformation	-9.86997
战	-9.87084
▁difference	-9.87089
▁thought	-9.87189
▁regions	-9.87214
ti	-9.87237
▁class	-9.8725
带来了	-9.87363
投入	-9.87403
▁begin	-9.8749
食品	-9.87509
▁agree	-9.87519
的核心	-9.87541
国际货币基金组织	-9.87556
policy	-9.87578
尤其	-9.87686
罗	-9.87799
将是	-9.87805
▁planet	-9.87818
▁secure	-9.87835
速度	-9.8784
▁seeking	-9.8784
信心	-9.87841
▁protection	-9.87879
▁trend	-9.87906
联合	-9.87925
▁neighbors	-9.87953
这意味着	-9.87978
攻击	-9.88039
空间	-9.88097
增加了	-9.88098
▁boom	-9.88105
提振	-9.88192
▁uncertainty	-9.88211
▁indian	-9.88212
▁encourage	-9.88217
的行为	-9.88279
全	-9.88283
ous	-9.88315
▁standard	-9.88418
障碍	-9.88512
技能	-9.88536
▁test	-9.88556
▁shows	-9.88586
▁lose	-9.88619
▁importance	-9.8862
▁结果	-9.8865
side	-9.88673
▁whole	-9.88747
making	-9.88766
▁directly	-9.88777
▁fail	-9.88844
纳	-9.88847
激励	-9.88873
▁根据	-9.88926
就像	-9.89096
be	-9.89134
▁partnership	-9.89145
成立	-9.89147
其实	-9.89158
苏联	-9.89315
接近	-9.89324
▁steps	-9.89368
统一	-9.89402
供给	-9.89442
▁supposed	-9.8945
工程	-9.89511
称	-9.8964
ful	-9.89681
▁culture	-9.89716
死	-9.89759
更好的	-9.8981
▁seek	-9.89818
股市	-9.89824
▁parts	-9.89825
实行	-9.8986
▁limits	-9.899
▁responsible	-9.89911
▁15	-9.89919
一致	-9.89968
▁2017	-9.89976
▁即使	-9.89985
定	-9.90022
▁cold	-9.90026
加速	-9.90057
▁actions	-9.90075
范围	-9.90148
▁unlike	-9.90163
▁zero	-9.90231
▁leaving	-9.90267
预计	-9.90331
监督	-9.90415
普京	-9.90436
不到	-9.90515
▁feel	-9.90528
▁severe	-9.90569
穷人	-9.90587
报	-9.9064
▁seemed	-9.90654
▁通过	-9.90696
▁option	-9.90825
▁doubt	-9.90857
出现了	-9.90878
▁不幸的是	-9.90932
▁muslim	-9.9096
▁car	-9.90979
ad	-9.90989
显著	-9.91004
目的	-9.91008
的一部分	-9.91049
▁story	-9.91106
▁pollution	-9.91146
▁religious	-9.91154
▁serve	-9.91197
▁据	-9.91223
真实	-9.91272
▁faces	-9.91293
▁competitive	-9.91347
太	-9.91354
▁m	-9.91416
▁insurance	-9.91438
警告	-9.9146
是在	-9.91482
▁respond	-9.91489
▁包括	-9.91508
程序	-9.91517
▁partly	-9.91617
科	-9.91631
布	-9.91683
明显	-9.91709
▁followed	-9.91744
▁bankers	-9.9178
巴	-9.91794
核心	-9.91908
自我	-9.91924
do	-9.91933
▁agricultural	-9.91944
▁otherwise	-9.91947
政客	-9.9197
▁faster	-9.91973
最大	-9.92022
遭到	-9.92032
仅	-9.92107
▁range	-9.92165
立场	-9.92257
▁politically	-9.92326
▁strategies	-9.92368
▁abroad	-9.92368
▁rural	-9.92368
模型	-9.92369
估计	-9.92371
理论	-9.92408
电	-9.92442
大国	-9.9251
▁theory	-9.92529
▁break	-9.92624
相反	-9.92663
十	-9.92743
增长率	-9.92755
学校	-9.92779
▁context	-9.92794
▁latest	-9.92806
▁但如果	-9.92828
协定	-9.92864
农民	-9.92884
学生	-9.92959
▁2001	-9.92981
▁2	-9.92999
方针	-9.93029
墨西哥	-9.931
正如	-9.93165
维	-9.93193
艾滋病	-9.93219
未能	-9.93248
区域	-9.93255
▁scientific	-9.93265
▁board	-9.93288
▁drive	-9.93326
的欧洲	-9.93336
影响力	-9.93337
▁democrats	-9.93373
2009	-9.93418
▁spread	-9.93531
2011	-9.93535
j	-9.93553
▁bond	-9.93578
▁subject	-9.9365
▁assistance	-9.93651
发行	-9.93662
精英	-9.93771
一直在	-9.93795
▁conference	-9.93817
的承诺	-9.93884
对中国	-9.9394
永远	-9.93941
潜在	-9.93965
身	-9.93967
所面临的	-9.93982
的作用	-9.94014
实际上	-9.94034
中国经济	-9.94063
▁mid	-9.94078
▁appear	-9.94088
未	-9.94105
▁going	-9.94183
▁e	-9.94306
▁efficiency	-9.9431
▁students	-9.94371
增强	-9.94393
▁turned	-9.94477
米	-9.94494
差异	-9.94497
▁reduction	-9.94551
▁liquidity	-9.94578
公	-9.94603
▁hit	-9.94607
光	-9.94609
ists	-9.94632
▁republican	-9.94766
▁argument	-9.94778
经济发展	-9.94789
▁factor	-9.94828
便	-9.94838
▁excessive	-9.9484
均	-9.94935
▁与	-9.94947
对此	-9.94949
忽视	-9.94984
▁promise	-9.9506
该地区	-9.95074
▁universal	-9.95076
中央银行	-9.95191
▁imports	-9.95304
可以在	-9.95315
▁talks	-9.95327
100	-9.95363
▁capita	-9.95374
▁extent	-9.95386
▁extend	-9.95521
形式	-9.95533
的发展	-9.95565
的美国	-9.95593
最重要的	-9.95633
▁plans	-9.9566
ian	-9.95671
▁substantial	-9.9573
因为它	-9.95748
进	-9.95773
▁front	-9.95784
▁nation	-9.95784
▁equal	-9.95804
▁improving	-9.95824
▁diplomatic	-9.95825
raising	-9.95825
▁macroeconomic	-9.95825
展开	-9.95825
克服	-9.95827
▁announced	-9.95869
不平等	-9.95971
▁experts	-9.9605
▁payments	-9.9607
的努力	-9.96088
▁addressing	-9.96138
▁wage	-9.9617
▁rely	-9.96209
▁green	-9.96228
民族	-9.96262
▁currencies	-9.96265
▁类似地	-9.96266
产出	-9.96282
都在	-9.96286
性的	-9.96348
的社会	-9.96424
-20	-9.9649
▁enterprises	-9.96616
统治	-9.96691
▁mass	-9.967
▁kong	-9.96707
▁precisely	-9.96727
▁tools	-9.96733
体	-9.96737
▁broader	-9.96737
▁prove	-9.96779
▁produced	-9.96838
进程	-9.96905
▁borrowing	-9.96911
简单	-9.96943
▁wages	-9.96947
适应	-9.96954
▁populist	-9.96987
混乱	-9.97141
禁止	-9.97166
▁allowing	-9.97208
土地	-9.97246
▁argued	-9.97247
▁hong	-9.97248
▁reflects	-9.97276
▁t	-9.97281
one	-9.97327
▁whatever	-9.9735
加剧	-9.97375
▁prospects	-9.97472
▁immediate	-9.97484
▁historical	-9.97502
邻国	-9.97505
主权	-9.97553
快	-9.97558
风	-9.97587
▁police	-9.9759
▁message	-9.97601
多少	-9.97617
有效的	-9.97676
▁adopted	-9.97722
ies	-9.97771
▁许多	-9.97825
▁win	-9.97885
任务	-9.9789
几	-9.97951
▁generate	-9.97966
转	-9.97986
见	-9.98023
车	-9.98035
研发	-9.98046
波兰	-9.98049
▁competitiveness	-9.98059
采用	-9.98065
争议	-9.98066
政府的	-9.98099
▁march	-9.98105
假设	-9.98171
边境	-9.98202
▁happen	-9.98213
▁efficient	-9.98243
▁sound	-9.98292
▁sides	-9.98309
福利	-9.98309
▁press	-9.98514
▁committee	-9.98527
▁comprehensive	-9.98527
即将	-9.9855
▁southern	-9.98552
进展	-9.98626
ul	-9.98636
得到了	-9.9873
转变	-9.98734
▁migrants	-9.98765
▁broad	-9.98794
co	-9.98799
火	-9.9883
就必须	-9.98845
争论	-9.98855
▁bo	-9.98867
▁specific	-9.98871
不愿	-9.98879
▁wants	-9.98905
大选	-9.98908
▁fast	-9.98915
▁该	-9.98928
语	-9.98941
众多	-9.98959
生命	-9.99118
态度	-9.9922
局	-9.99225
后者	-9.99263
▁elected	-9.99311
年间	-9.99317
▁deliver	-9.9937
2007	-9.99389
负担	-9.99403
▁easing	-9.99404
▁legitimacy	-9.99404
▁activity	-9.99405
▁carry	-9.99409
▁其次	-9.99417
推	-9.99432
不确定性	-9.99461
发达经济体	-9.99473
意	-9.99485
看来	-9.99512
批准	-9.99561
布什	-9.99588
阿拉伯	-9.99696
显示	-9.9972
处	-9.99744
21	-9.99756
最后	-9.99775
尼	-9.99812
的那样	-9.99841
▁attract	-9.99844
century	-9.99846
▁multilateral	-9.99851
半	-9.99902
▁depression	-9.99928
▁lending	-9.9996
▁improved	-10.0004
死亡	-10.0007
▁initiatives	-10.0013
▁2%	-10.0016
▁soft	-10.0023
大型	-10.0024
获得了	-10.0026
▁cash	-10.0032
▁whereas	-10.0039
▁light	-10.0041
▁built	-10.0044
并在	-10.0051
▁buy	-10.0056
实	-10.0059
▁none	-10.0065
民族主义	-10.0068
▁becomes	-10.0069
贡献	-10.0077
▁choose	-10.0078
▁clinton	-10.0078
平台	-10.0078
了一个	-10.0079
▁sovereignty	-10.0079
工	-10.0083
导致了	-10.0088
▁wall	-10.0091
▁regulators	-10.0093
▁head	-10.01
▁republicans	-10.0104
重组	-10.0104
种	-10.0107
遭受	-10.0116
的投资	-10.012
▁这意味着	-10.0122
▁subsidies	-10.0124
▁geopolitical	-10.0124
意识到	-10.0125
▁expand	-10.0125
▁scientists	-10.0143
得以	-10.0151
可持续	-10.0153
▁succeed	-10.0154
对话	-10.016
ally	-10.0166
▁f	-10.017
▁stand	-10.0171
捍卫	-10.0171
▁safety	-10.0171
▁cross	-10.0172
高度	-10.0175
▁causes	-10.0184
东盟	-10.0193
能否	-10.0195
亚	-10.0196
▁task	-10.0199
4%	-10.02
▁economist	-10.0204
泡沫	-10.0214
▁afford	-10.0216
▁easily	-10.0218
▁anything	-10.0218
2000	-10.0221
只要	-10.0227
重要的	-10.0232
病	-10.0233
▁revenues	-10.0233
还要	-10.0233
记者	-10.0236
▁constitution	-10.0251
股票	-10.026
天然气	-10.0265
▁practices	-10.0265
▁2005	-10.0267
▁shown	-10.027
的长期	-10.0274
我们必须	-10.0276
外交政策	-10.0276
▁regulations	-10.0277
条	-10.0277
提出了	-10.0283
▁affairs	-10.0284
▁opinion	-10.0294
现象	-10.0294
▁achieved	-10.0295
▁normal	-10.03
真的	-10.0302
▁以	-10.0311
▁diseases	-10.0311
夫	-10.0311
升级	-10.0312
▁electricity	-10.0312
▁spend	-10.0313
今天的	-10.0314
代价	-10.0316
scale	-10.0316
精神	-10.0319
▁unable	-10.032
负	-10.0325
门	-10.0328
▁driven	-10.0329
▁add	-10.0332
▁online	-10.0334
随后	-10.0335
▁suggest	-10.0337
▁principle	-10.0342
前景	-10.0346
记录	-10.0352
ta	-10.0354
通缩	-10.0356
世界银行	-10.0359
▁intelligence	-10.0359
▁november	-10.0359
妥协	-10.0359
▁medical	-10.0359
▁week	-10.036
促使	-10.0362
▁northern	-10.0366
最为	-10.0368
▁takes	-10.0373
▁clean	-10.0381
毫无	-10.0389
▁radical	-10.0393
ling	-10.04
宣称	-10.0405
乐观	-10.0406
▁families	-10.0407
▁space	-10.0407
▁spent	-10.0407
安排	-10.0407
▁slowdown	-10.0407
▁affect	-10.0408
▁calls	-10.0412
▁try	-10.0427
走向	-10.0433
▁revenue	-10.0439
▁sustain	-10.0445
取	-10.0446
▁lot	-10.0455
▁palestinian	-10.0461
▁june	-10.0461
这些国家	-10.0469
正确	-10.047
▁happened	-10.0473
取代	-10.0475
▁changing	-10.0479
▁changed	-10.0482
▁paid	-10.0483
▁le	-10.0488
▁fuels	-10.0494
▁size	-10.05
旧	-10.0501
思维	-10.0502
▁brussels	-10.0505
▁considerable	-10.0506
▁estimated	-10.0506
▁anyone	-10.0507
related	-10.0511
明白	-10.0511
分配	-10.0512
双方	-10.0527
问题的	-10.053
▁laws	-10.0533
we	-10.0548
衡量	-10.0554
失业率	-10.0556
经常	-10.056
▁training	-10.0562
▁agreements	-10.0562
口	-10.0565
▁principles	-10.0568
摆脱	-10.0568
持有	-10.0572
▁30	-10.0572
伦敦	-10.0576
▁defend	-10.058
秩序	-10.0585
▁r	-10.0585
花	-10.059
▁unprecedented	-10.0599
▁book	-10.0603
▁conservative	-10.0605
很可能	-10.0606
▁尽管如此	-10.0608
▁deaths	-10.061
▁4	-10.0611
放	-10.0612
劳动力市场	-10.0616
有些	-10.0622
▁present	-10.0623
▁自	-10.0627
▁ensur	-10.0627
▁appears	-10.0628
采取行动	-10.063
▁quarter	-10.0634
▁refugee	-10.0635
▁predict	-10.0638
科技	-10.0639
严重的	-10.0645
▁final	-10.0647
信任	-10.0647
崛起	-10.0647
▁saudi	-10.0648
▁running	-10.0649
碳	-10.065
不应该	-10.065
owned	-10.0653
▁capitalism	-10.0656
▁fair	-10.0656
先	-10.0668
lo	-10.067
得多	-10.0682
是因为	-10.0685
表现出	-10.0688
是一种	-10.0688
尊重	-10.0692
▁demands	-10.0693
▁double	-10.0696
所造成的	-10.0699
领土	-10.07
▁heart	-10.0715
知识	-10.0721
应用	-10.0725
二	-10.0728
state	-10.0731
!	-10.0733
▁greek	-10.0747
mo	-10.0747
与美国	-10.0748
▁fighting	-10.0751
一条	-10.0753
▁safe	-10.0759
▁sign	-10.0773
▁enter	-10.0779
价	-10.0789
▁speech	-10.0794
梅	-10.0796
▁december	-10.0796
▁merkel	-10.0796
为何	-10.0796
计算	-10.0797
美国经济	-10.08
许多人	-10.0805
▁mind	-10.0806
大幅	-10.0808
一起	-10.0809
▁sustained	-10.0814
merely	-10.0828
界	-10.0835
零	-10.0835
落	-10.0835
▁possibility	-10.0846
▁worst	-10.0846
克林顿	-10.0846
抵制	-10.0846
ize	-10.0859
▁helping	-10.0861
▁went	-10.0866
▁barriers	-10.0866
发表	-10.0867
日程	-10.0873
▁alliance	-10.0884
反映了	-10.0887
▁ireland	-10.0896
▁asean	-10.0912
▁3	-10.0918
的需求	-10.0924
自身的	-10.0924
新兴经济体	-10.093
选	-10.0931
波	-10.0933
▁mechanism	-10.0935
对抗	-10.0936
伤害	-10.0939
否则	-10.0944
com	-10.0945
部	-10.0945
全部	-10.095
▁threaten	-10.0954
▁your	-10.0956
vi	-10.0957
引起	-10.0957
▁white	-10.0959
身份	-10.0967
▁thousands	-10.097
五	-10.0972
▁measure	-10.0978
▁designed	-10.0979
▁provides	-10.0979
可能是	-10.0981
东	-10.0983
▁伦敦	-10.0987
▁ban	-10.0987
▁operations	-10.0989
1%	-10.0989
尤其是	-10.0991
共识	-10.0991
形势	-10.0993
年来	-10.0995
通货膨胀	-10.0996
getting	-10.0996
另一个	-10.0996
▁widespread	-10.0997
▁fell	-10.0997
▁restructuring	-10.0997
▁viewed	-10.0997
立法	-10.1001
▁纽约	-10.1004
▁以及	-10.1004
▁closer	-10.1014
年后	-10.1015
ba	-10.1032
▁conflicts	-10.1039
集中	-10.104
早已	-10.1041
▁ratio	-10.1042
▁rhetoric	-10.1047
▁2006	-10.1048
动力	-10.1048
▁去年	-10.1049
平等	-10.1054
▁lies	-10.1056
▁received	-10.1061
当选	-10.1061
中国领导人	-10.1065
智利	-10.1065
▁除了	-10.1068
▁faced	-10.1075
对手	-10.1077
▁其中	-10.1079
不管	-10.1086
7%	-10.1086
▁collective	-10.1087
将其	-10.1092
尝试	-10.1098
回归	-10.1099
▁army	-10.1099
债权人	-10.11
▁democracies	-10.1101
▁started	-10.1112
▁作为	-10.1114
ate	-10.1118
的关系	-10.1121
▁george	-10.1122
▁giving	-10.1126
方向	-10.1126
南	-10.1128
金融机构	-10.1132
在欧洲	-10.1136
▁depends	-10.1139
一般	-10.114
当前的	-10.1144
世界经济	-10.1146
▁structure	-10.1146
奇	-10.1147
▁coalition	-10.1147
粮食	-10.1148
人工智能	-10.115
宣传	-10.115
不得不	-10.1153
▁receive	-10.1155
▁highest	-10.1155
▁20%	-10.1169
▁remained	-10.1173
▁promises	-10.1178
▁returns	-10.118
▁strengthening	-10.119
▁英国	-10.119
开支	-10.119
具备	-10.1192
规划	-10.1198
全球变暖	-10.1199
▁republic	-10.12
哥伦比亚	-10.1201
▁greatest	-10.1204
讲	-10.1205
▁visit	-10.1207
▁host	-10.1217
民主国家	-10.123
属于	-10.1234
▁base	-10.1236
癌症	-10.1236
相互	-10.1237
供应	-10.1243
▁addition	-10.1245
无论	-10.125
▁seven	-10.1252
局面	-10.1253
比较	-10.1254
▁同时	-10.1258
▁distribution	-10.1262
▁instability	-10.1264
▁learn	-10.1265
具体	-10.1266
理	-10.1268
越	-10.127
▁entirely	-10.1275
的战略	-10.1275
▁welfare	-10.1277
更高的	-10.1277
的世界	-10.1296
女	-10.1296
为什么	-10.1299
特别是在	-10.1301
大大	-10.1302
▁suffer	-10.1304
▁presidency	-10.1305
▁solar	-10.1306
这个问题	-10.1314
不同的	-10.1323
科学家	-10.1325
在其	-10.1335
▁met	-10.1337
▁struggle	-10.1341
举行	-10.1343
▁managed	-10.1343
▁bill	-10.1349
▁bear	-10.1354
▁supported	-10.1356
违约	-10.1356
公投	-10.1357
▁circumstances	-10.1357
▁pace	-10.1358
值	-10.1368
差距	-10.1368
基	-10.1369
▁moving	-10.137
同时也	-10.1372
波动	-10.1373
▁人们	-10.1373
现金	-10.1376
场	-10.1378
中国政府	-10.1386
空	-10.1387
还没有	-10.139
总体	-10.1395
操纵	-10.1408
▁default	-10.1409
▁chile	-10.1409
▁nonetheless	-10.141
▁attempt	-10.1411
▁mutual	-10.1414
▁resistance	-10.1418
▁amounts	-10.1419
指数	-10.142
转移	-10.1423
约束	-10.1423
▁drugs	-10.1429
▁productive	-10.143
进行了	-10.1431
低于	-10.1431
欧盟的	-10.1432
回报	-10.1433
本地	-10.1434
▁arms	-10.1435
▁israeli	-10.1436
更高	-10.144
替代	-10.144
▁schools	-10.1441
of	-10.1445
取消	-10.1448
所谓	-10.1454
▁scenario	-10.1457
局势	-10.1463
互相	-10.1463
医生	-10.1463
重建	-10.1465
任	-10.1467
▁adjustment	-10.1469
角色	-10.1472
合	-10.1476
im	-10.1479
事情	-10.1481
理由	-10.1482
17	-10.1485
种族	-10.1486
▁5	-10.1501
分歧	-10.1506
▁estimates	-10.1509
▁danger	-10.151
生活在	-10.1512
山	-10.1515
极	-10.1518
▁excess	-10.152
级	-10.1528
▁threats	-10.1533
伙伴	-10.1534
目前的	-10.1536
合理	-10.1538
▁implemented	-10.1539
▁outcomes	-10.1539
少	-10.1541
物	-10.1545
level	-10.1545
千	-10.1547
被视为	-10.1561
费	-10.1563
▁foundation	-10.1567
&	-10.157
▁agencies	-10.157
▁easier	-10.157
▁gender	-10.157
▁everything	-10.157
▁everywhere	-10.157
犯罪	-10.1573
可再生能源	-10.1574
的重要性	-10.1576
就可以	-10.1577
▁associat	-10.158
一点	-10.158
▁其	-10.1587
传播	-10.1592
ish	-10.1596
香港	-10.1599
▁dis	-10.1603
未来的	-10.1607
▁advance	-10.161
脱欧	-10.1612
▁enormous	-10.1612
量化宽松	-10.1615
ir	-10.1615
的国际	-10.1622
▁诚然	-10.1623
▁cambridge	-10.1623
ia	-10.1624
▁else	-10.1625
▁combined	-10.1627
教训	-10.1632
▁launched	-10.1642
岁	-10.1648
意义	-10.1654
▁hundreds	-10.1655
给予	-10.1662
▁sharp	-10.1663
izing	-10.1663
重点	-10.1663
十年	-10.1666
▁ended	-10.1669
有人	-10.1672
最近的	-10.1672
▁legislation	-10.1677
▁最近	-10.1681
多边	-10.1685
▁smaller	-10.1688
▁incomes	-10.1692
▁appropriate	-10.1693
▁《	-10.1699
▁sell	-10.1704
同样的	-10.1705
if	-10.1713
▁tensions	-10.1713
▁controls	-10.1714
quite	-10.1719
▁undermine	-10.172
▁round	-10.172
▁2000	-10.1728
思考	-10.173
执政	-10.1731
澳大利亚	-10.1732
跟	-10.1737
▁joint	-10.1737
对美国	-10.1744
胜利	-10.1751
的措施	-10.1752
阻碍	-10.1759
广泛	-10.1774
手中	-10.1774
才是	-10.1781
▁considered	-10.1782
tor	-10.1785
额	-10.1786
▁genuine	-10.1786
客户	-10.1786
▁robust	-10.1786
一家	-10.1787
地区的	-10.1798
▁experienced	-10.1807
▁aim	-10.181
▁1970	-10.1811
仍在	-10.1811
看起来	-10.1813
▁represent	-10.1821
一份	-10.1821
担忧	-10.1823
▁trends	-10.1827
一体化	-10.183
斗争	-10.1833
▁blame	-10.1835
▁inevitable	-10.1841
议程	-10.1841
正确的	-10.1843
▁sufficient	-10.1845
▁bubble	-10.1848
边界	-10.1852
▁cutting	-10.1858
通	-10.1859
▁constitutional	-10.1867
市	-10.1877
支撑	-10.188
案	-10.1881
以前	-10.1881
维护	-10.1883
▁cover	-10.1889
尽	-10.1891
▁而在	-10.1893
▁lessons	-10.1895
▁disaster	-10.1896
▁dynamic	-10.1896
在过去	-10.1913
的做法	-10.1915
在中国	-10.1922
一旦	-10.1934
▁failing	-10.1935
首	-10.1935
最高	-10.1936
▁places	-10.1936
▁practice	-10.1936
收	-10.1937
储备	-10.1943
交	-10.195
▁absence	-10.1952
委内瑞拉	-10.1952
尚未	-10.1953
ted	-10.1954
▁twenty	-10.1958
▁territorial	-10.196
上涨	-10.1961
▁equally	-10.1967
lu	-10.1987
▁li	-10.1989
的威胁	-10.1993
tic	-10.2
管制	-10.2003
地缘政治	-10.2008
▁various	-10.2008
▁特朗普	-10.201
强大	-10.2017
▁terrorist	-10.2018
▁wind	-10.2018
mir	-10.2022
▁raised	-10.2028
▁deeply	-10.2029
产生了	-10.2029
内容	-10.203
▁2004	-10.2031
在内的	-10.2032
▁whom	-10.2034
▁resource	-10.2042
▁views	-10.2043
european	-10.2049
▁expanding	-10.205
投资于	-10.2052
造成了	-10.2052
托	-10.2057
▁la	-10.2058
▁am	-10.2065
推行	-10.2065
▁50%	-10.2065
▁due	-10.2068
500	-10.2075
▁lesson	-10.2076
con	-10.2077
▁field	-10.2087
国外	-10.2091
之下	-10.2094
变得更加	-10.21
除了	-10.21
让我们	-10.21
▁track	-10.2104
▁imbalances	-10.2104
which	-10.2106
法院	-10.2108
2017	-10.2112
▁objectives	-10.2114
▁debts	-10.2115
不要	-10.2116
ty	-10.2117
▁并且	-10.2118
监管者	-10.2118
▁spring	-10.2121
指导	-10.2121
访问	-10.2121
▁singapore	-10.2126
集体	-10.2127
越南	-10.2133
▁driving	-10.2134
欧盟委员会	-10.2136
▁这个	-10.2139
项	-10.2141
房地产	-10.2143
危险的	-10.2143
热	-10.2146
▁generally	-10.2152
非法	-10.2156
质量	-10.2159
▁实际上	-10.2159
陷入了	-10.216
的地方	-10.2161
ant	-10.2167
ry	-10.2171
▁即	-10.2173
主张	-10.2177
▁january	-10.2178
▁medium	-10.2178
▁diplomacy	-10.2178
构成	-10.2178
首次	-10.2178
电力	-10.2179
▁involved	-10.2182
情	-10.2186
她们	-10.2187
将继续	-10.219
▁profits	-10.2193
for	-10.2202
▁6	-10.2207
我的	-10.2208
连	-10.2211
ance	-10.2214
▁ask	-10.2215
诸多	-10.222
▁differences	-10.2221
ver	-10.2225
▁credibility	-10.2235
▁promoting	-10.2235
▁taiwan	-10.2235
埃尔多安	-10.2235
煤炭	-10.2235
都将	-10.2236
▁ongoing	-10.2239
▁youth	-10.224
有一个	-10.224
▁goes	-10.2243
现代化	-10.2244
亲	-10.2245
▁stage	-10.2248
这次	-10.2252
▁declared	-10.2252
▁asked	-10.2252
比例	-10.2255
▁syrian	-10.2259
▁ai	-10.2261
劳动	-10.2269
发挥	-10.227
早	-10.227
也不	-10.2271
▁wars	-10.2273
▁creditors	-10.2274
▁played	-10.228
普通	-10.2284
▁lines	-10.2285
书	-10.2287
测试	-10.2288
培训	-10.229
首先	-10.229
▁implies	-10.2292
▁treasury	-10.2292
▁greenhouse	-10.2292
消失	-10.2292
po	-10.2295
惩罚	-10.2295
主席	-10.2299
▁worked	-10.23
▁typically	-10.2301
人的	-10.2304
也是如此	-10.2309
论	-10.2315
深	-10.2317
药物	-10.2322
▁mo	-10.2326
的东西	-10.2329
5%	-10.2334
▁上述	-10.2334
往	-10.2336
提	-10.2337
▁name	-10.2344
当中	-10.2345
按	-10.235
▁himself	-10.235
条款	-10.235
▁priority	-10.235
团体	-10.2353
▁也许	-10.2354
绝对	-10.2364
办法	-10.2372
的压力	-10.2379
产量	-10.2383
▁establishment	-10.2384
也无法	-10.2396
▁leverage	-10.24
▁ma	-10.2403
▁ministers	-10.2404
▁eight	-10.2407
迪	-10.2407
▁overcome	-10.2408
肯尼亚	-10.2408
的成功	-10.2424
▁person	-10.2426
的变化	-10.2429
遭遇	-10.243
周期	-10.2432
政治家	-10.2435
各国政府	-10.2443
回到	-10.2447
▁design	-10.2448
一年	-10.245
价值观	-10.245
▁offers	-10.245
担任	-10.2453
爱尔兰	-10.2453
后的	-10.2455
▁caus	-10.2456
2020	-10.2462
的数据	-10.2465
拯救	-10.2466
▁vietnam	-10.2466
加拿大	-10.2467
▁studies	-10.2467
▁poorest	-10.2469
▁fallen	-10.247
▁mostly	-10.2471
失	-10.2478
▁resolution	-10.2482
要比	-10.2485
▁explain	-10.2485
中产阶级	-10.2486
司法	-10.249
▁12	-10.2496
的重要	-10.2497
刚刚	-10.2507
▁如	-10.251
▁narrow	-10.2514
镇压	-10.2522
▁patients	-10.2522
缺陷	-10.2525
中国在	-10.2527
员工	-10.2531
▁decided	-10.2533
▁proved	-10.2536
▁sharply	-10.2538
▁deflation	-10.2544
▁firm	-10.2545
▁implications	-10.2547
白	-10.2547
▁determine	-10.2551
流动	-10.2564
的研究	-10.2568
所需的	-10.2572
脆弱	-10.2572
带来的	-10.2573
▁link	-10.2575
▁john	-10.2575
候选人	-10.2576
干	-10.2579
还会	-10.2581
绿色	-10.2581
平	-10.2583
14	-10.2584
林	-10.2584
▁virtually	-10.2587
的工作	-10.259
▁usually	-10.2591
▁objective	-10.2592
仅仅是	-10.2593
习近平	-10.2595
说服	-10.261
位于	-10.261
成就	-10.2618
▁talk	-10.2624
我们需要	-10.2626
容易	-10.2626
▁o	-10.2633
起到	-10.2641
▁exit	-10.2645
▁formal	-10.2651
关税	-10.2652
▁proposal	-10.2652
也就是	-10.2663
▁language	-10.2663
▁forms	-10.2675
wing	-10.2683
经济的	-10.2686
举措	-10.2692
已经开始	-10.2698
▁technical	-10.2699
协助	-10.2703
▁guarantee	-10.2708
放缓	-10.2708
op	-10.2711
超	-10.2712
▁8	-10.2715
都有	-10.2722
▁index	-10.2725
启动	-10.2739
▁一些	-10.274
▁room	-10.2741
▁mainly	-10.2749
▁mandate	-10.2749
引入	-10.2752
全国	-10.2753
人均	-10.2754
▁shape	-10.2756
▁resolve	-10.2756
亿美元的	-10.2757
▁learning	-10.2758
▁potentially	-10.2759
▁mis	-10.2759
中国人	-10.2761
主导	-10.2762
▁expensive	-10.2764
▁erdoğan	-10.2764
▁sought	-10.2765
私人部门	-10.2768
▁gone	-10.2769
▁tried	-10.277
第一	-10.2772
▁includes	-10.2776
10%	-10.2777
取得了	-10.2777
作出	-10.2792
▁hiv	-10.2794
与其	-10.2803
居民	-10.2803
最新	-10.2811
▁50	-10.282
carbon	-10.2822
2005	-10.2824
▁heavily	-10.2825
▁participation	-10.2825
▁innovative	-10.2825
▁permanent	-10.2829
▁emerged	-10.2832
▁critics	-10.2833
line	-10.2834
的方法	-10.2839
▁renewable	-10.2842
▁dc	-10.2848
▁join	-10.2853
▁fears	-10.2855
▁achiev	-10.2858
的权利	-10.2862
▁options	-10.2865
声	-10.287
信	-10.2882
突然	-10.2884
first	-10.2885
▁unique	-10.2886
▁october	-10.2886
▁volatility	-10.2886
▁agency	-10.2886
哈	-10.2887
六	-10.2887
ical	-10.2887
经	-10.2894
▁conventional	-10.2898
▁mechanisms	-10.2899
净	-10.2901
▁apply	-10.2902
▁partner	-10.2906
唯一	-10.2908
▁stands	-10.291
▁borrow	-10.291
more	-10.2912
的行动	-10.2914
足够的	-10.2916
▁今天	-10.2928
▁investing	-10.293
▁hours	-10.293
▁cycle	-10.293
人们对	-10.2932
6%	-10.2932
采取了	-10.2939
巨额	-10.294
▁figure	-10.2945
▁inadequate	-10.2947
▁pursuing	-10.2947
扭曲	-10.2947
哪些	-10.2947
住房	-10.2947
眼	-10.2948
2006	-10.2948
run	-10.2948
▁fortunately	-10.2949
的大	-10.2951
的挑战	-10.2953
的地区	-10.2957
所有人	-10.2962
▁adopt	-10.2962
▁percentage	-10.2963
0	-10.2965
▁event	-10.2968
当今	-10.2968
▁那些	-10.2969
这项	-10.2969
▁import	-10.2972
统计	-10.2976
bank	-10.2982
▁在美国	-10.2983
▁actors	-10.2985
的成本	-10.2985
ut	-10.2989
▁k	-10.2989
▁mention	-10.2992
▁list	-10.2994
世	-10.2999
紧	-10.3003
让他们	-10.3006
矛盾	-10.3009
▁profound	-10.3009
之所以	-10.3011
声称	-10.3016
▁mistake	-10.3018
▁multi	-10.3021
的生活	-10.3022
▁immigrants	-10.3031
▁populations	-10.3038
月的	-10.3041
▁tell	-10.3049
肯定	-10.3058
仍然是	-10.3068
▁aggregate	-10.3071
lying	-10.3072
产	-10.3076
▁practical	-10.3076
▁heavy	-10.3081
▁purpose	-10.3097
▁korean	-10.3105
潜力	-10.3109
▁told	-10.3111
▁trigger	-10.3116
▁hands	-10.3123
过于	-10.3123
概念	-10.3123
的危险	-10.3124
经营	-10.3124
农村	-10.3125
▁decide	-10.3125
负债	-10.313
▁combination	-10.3133
认定	-10.3134
在线	-10.3137
过程中	-10.3138
法庭	-10.3142
离	-10.3142
▁review	-10.3142
▁credible	-10.3146
▁street	-10.3147
除非	-10.315
▁planning	-10.315
▁upon	-10.3152
政府和	-10.3158
的态度	-10.3162
▁turning	-10.3166
▁offered	-10.3168
▁2003	-10.3171
南非	-10.3172
因为他们	-10.3181
几年	-10.3181
高于	-10.3185
是为了	-10.3194
服务业	-10.3196
罪	-10.3196
海洋	-10.3197
ability	-10.3198
ol	-10.3201
身上	-10.3206
▁divided	-10.3209
代	-10.322
▁battle	-10.3221
▁institute	-10.3222
证据	-10.3226
掉	-10.3227
在未来	-10.3237
必要的	-10.3246
成功的	-10.3252
职	-10.3252
萨	-10.3257
拉丁美洲	-10.326
▁declining	-10.326
▁ordinary	-10.326
警察	-10.326
外汇储备	-10.3262
▁integrated	-10.3263
▁harm	-10.3263
▁ties	-10.3263
▁2011	-10.3264
党派	-10.3265
若	-10.3265
▁commitments	-10.3266
出于	-10.327
历史上	-10.327
靠	-10.3271
▁prepared	-10.3272
国有企业	-10.3273
▁2020	-10.3279
北京	-10.328
双边	-10.3284
的例子	-10.3285
▁7	-10.3286
共	-10.3288
▁forum	-10.3289
美国总统	-10.3289
东西	-10.3289
入侵	-10.329
一国	-10.3291
反对派	-10.3293
▁suffering	-10.3294
▁transactions	-10.3302
拉美	-10.3309
实验	-10.3319
普	-10.332
莫	-10.3323
姆	-10.3323
放松	-10.3323
▁ruling	-10.3324
已经在	-10.3324
fuel	-10.3331
足以	-10.3333
可能导致	-10.3335
▁bringing	-10.3336
坏	-10.3338
▁degree	-10.3339
发生了	-10.334
▁discussion	-10.334
▁intellectual	-10.3343
▁hopes	-10.335
队	-10.335
基因	-10.3356
第二	-10.3365
一名	-10.3368
▁flow	-10.3372
但在	-10.3373
写	-10.3374
都没有	-10.3376
▁只有	-10.3377
▁yield	-10.3378
差	-10.338
雷	-10.3387
▁grew	-10.3387
▁relevant	-10.3387
▁temporary	-10.3387
▁transparency	-10.3387
▁starting	-10.3394
▁regimes	-10.3395
ck	-10.3398
▁processes	-10.3401
之上	-10.3405
2030	-10.3408
升高	-10.341
不受	-10.3417
严格	-10.3419
华	-10.342
年轻	-10.3425
问题是	-10.3428
有能力	-10.3428
前所未有的	-10.3432
常规	-10.3432
的后果	-10.3438
业务	-10.3444
▁dialogue	-10.3452
▁electoral	-10.3452
▁territory	-10.3452
台湾	-10.3452
▁poland	-10.3452
▁engage	-10.3461
▁trouble	-10.3461
▁oecd	-10.3461
▁speak	-10.3462
▁chief	-10.3469
▁immediately	-10.3469
▁pension	-10.347
▁prospect	-10.347
国民	-10.3473
▁政府	-10.3478
语言	-10.3482
13	-10.3492
反映	-10.3493
特征	-10.3493
来源	-10.3493
短缺	-10.3493
直到	-10.3494
很多人	-10.3497
式的	-10.3499
孩子	-10.3502
▁desire	-10.3509
▁surprise	-10.3509
承受	-10.3509
的价格	-10.3512
▁2030	-10.3512
▁continuing	-10.3517
股东	-10.3517
▁sustainability	-10.3517
货币联盟	-10.3521
▁faith	-10.3524
有限	-10.3532
▁signs	-10.3533
造成的	-10.3537
▁weeks	-10.354
理念	-10.3541
▁remaining	-10.3544
建筑	-10.3544
right	-10.3544
成了	-10.3545
欢迎	-10.3548
充满	-10.3553
▁stay	-10.3554
▁producers	-10.3557
实现了	-10.3568
▁30%	-10.3577
▁tough	-10.3579
共产主义	-10.3582
▁italian	-10.3582
▁unsustainable	-10.3583
盈余	-10.3583
▁described	-10.3586
无力	-10.3589
的改革	-10.3592
▁economically	-10.3597
▁quantitative	-10.3598
▁ethnic	-10.3598
发生在	-10.3598
▁summer	-10.3602
资产负债表	-10.3603
减	-10.3603
▁choices	-10.3606
之路	-10.361
倒	-10.361
▁holding	-10.3612
留	-10.3614
原	-10.3614
支持者	-10.3615
▁elites	-10.3616
阵营	-10.3619
▁€	-10.3625
▁tru	-10.3631
称为	-10.3639
▁numbers	-10.364
极为	-10.3646
伊	-10.3646
哈马斯	-10.3648
利比亚	-10.3648
纷纷	-10.3648
▁dramatically	-10.3648
第一次	-10.3652
一套	-10.3654
按照	-10.3661
万人	-10.3661
巩固	-10.3662
两大	-10.3662
都要	-10.3665
的担忧	-10.3669
当然	-10.3677
▁useful	-10.3677
参加	-10.3683
海外	-10.3685
还需要	-10.3686
纽约	-10.3686
▁type	-10.369
此前	-10.3699
▁imagine	-10.3708
分子	-10.3711
▁california	-10.3714
▁demographic	-10.3714
逐步	-10.3714
主流	-10.3716
保留	-10.3716
大萧条	-10.3718
任命	-10.3721
▁deeper	-10.3721
言	-10.3724
新加坡	-10.3729
例如	-10.373
1990	-10.3732
部长	-10.3735
考虑到	-10.3737
na	-10.3744
不平等性	-10.3755
▁happens	-10.3756
保险	-10.3756
让人	-10.3758
▁developments	-10.3761
的计划	-10.3761
回应	-10.3767
三个	-10.3775
▁encouraging	-10.3781
▁body	-10.3781
的说法	-10.3784
▁july	-10.3785
▁generations	-10.3789
错	-10.3796
▁troops	-10.3798
瑞典	-10.3799
▁recognized	-10.3799
真	-10.3799
▁playing	-10.3801
是如此	-10.3801
报道	-10.3801
▁strength	-10.3802
▁solve	-10.3802
▁promised	-10.3802
表达	-10.3803
▁belief	-10.3803
患者	-10.3804
达到了	-10.3819
退	-10.3833
ns	-10.3842
交通	-10.3846
瓦	-10.3848
16	-10.3852
▁addressed	-10.3853
ter	-10.3857
争取	-10.3857
▁introduced	-10.3858
class	-10.3866
▁learned	-10.387
比率	-10.3871
▁team	-10.3871
▁network	-10.3872
是个	-10.3876
的速度	-10.3877
药	-10.3878
ny	-10.3883
的时间	-10.3885
第	-10.3888
▁annually	-10.3895
付出	-10.3896
▁corporations	-10.3898
选项	-10.3899
这一问题	-10.3899
▁cheap	-10.3901
的责任	-10.3907
经历了	-10.3907
▁arabia	-10.391
机器	-10.3911
▁complete	-10.3915
▁analysis	-10.3916
▁destruction	-10.3916
资助	-10.3916
▁australia	-10.3916
▁losing	-10.3921
▁solidarity	-10.3924
信号	-10.3924
▁observers	-10.3932
立	-10.3933
▁movements	-10.3934
▁dream	-10.3939
然后	-10.3943
下降到	-10.3946
▁显然	-10.3951
▁red	-10.3952
定义	-10.3955
▁armed	-10.3959
▁proportion	-10.3963
政策的	-10.3964
的地位	-10.3965
强制	-10.397
▁send	-10.3977
▁positions	-10.3978
▁works	-10.398
器	-10.3981
gas	-10.3982
欧盟成员国	-10.3984
▁ambitious	-10.3984
▁chronic	-10.3984
▁physical	-10.3984
▁senior	-10.3984
吸收	-10.3984
▁accountability	-10.3985
▁要	-10.3986
▁sort	-10.3987
要素	-10.3987
经历	-10.3988
的力量	-10.3992
也不会	-10.3999
▁plants	-10.4004
work	-10.4005
失衡	-10.4006
▁paper	-10.4008
▁perspective	-10.4008
英	-10.4008
知	-10.4012
几个	-10.4018
▁grown	-10.4021
的崛起	-10.4022
▁worry	-10.4024
之时	-10.4024
美国政府	-10.4025
此次	-10.4027
抑制	-10.4031
越来越多的	-10.4032
▁aggressive	-10.4044
朝	-10.4049
即便	-10.4052
谨慎	-10.4052
默克尔	-10.4052
▁hamas	-10.4052
部署	-10.4052
▁不过	-10.4055
说明	-10.4056
old	-10.406
▁assume	-10.4069
▁violent	-10.407
mi	-10.407
大陆	-10.407
▁moderate	-10.4075
2001	-10.4075
有了	-10.4075
▁operate	-10.4077
▁h	-10.4082
出售	-10.409
▁requirements	-10.4095
非洲国家	-10.4098
▁en	-10.4102
必要	-10.4105
▁criminal	-10.4105
神	-10.4109
的基础	-10.411
月份	-10.4111
紧张	-10.4119
借贷	-10.4119
▁humans	-10.412
市场的	-10.412
intensive	-10.4121
▁fourth	-10.4126
▁inclusive	-10.4127
金融体系	-10.4128
运作	-10.4129
he	-10.4141
以便	-10.4142
▁drop	-10.4147
▁yes	-10.4151
的权力	-10.4158
世界上	-10.4159
▁1930	-10.4166
停滞	-10.4169
▁或者	-10.4177
ip	-10.4178
▁welcome	-10.4182
激进	-10.4183
▁·	-10.4189
麻烦	-10.419
▁phase	-10.419
操作	-10.419
~	-10.4191
感染	-10.4191
减轻	-10.4191
其它	-10.4191
民	-10.4191
▁purchases	-10.4192
步	-10.4193
经过	-10.4199
反而	-10.42
▁knows	-10.4201
不仅仅是	-10.4201
▁cyber	-10.4202
整体	-10.4202
▁search	-10.4207
据	-10.4211
pa	-10.4213
的中国	-10.4213
贫穷	-10.4224
▁reflected	-10.4226
拿出	-10.4226
没	-10.4227
单一	-10.4235
宏观经济	-10.4235
▁9	-10.4238
▁adapt	-10.4239
▁confront	-10.424
▁40%	-10.4251
▁wonder	-10.4251
只会	-10.4251
更好	-10.4255
▁earth	-10.4257
▁impose	-10.4258
财政政策	-10.4258
消灭	-10.426
谴责	-10.426
科索沃	-10.4261
▁begun	-10.4261
称之为	-10.4261
▁species	-10.4261
▁priorities	-10.4261
引导	-10.4261
帝国	-10.4269
▁twentieth	-10.4272
很少	-10.4273
边	-10.4274
▁quo	-10.4275
相关的	-10.4275
持	-10.4279
▁换句话说	-10.4281
▁bound	-10.4284
▁鉴于	-10.4284
类	-10.4286
free	-10.4288
富	-10.4289
▁journalists	-10.4291
▁islam	-10.4292
▁这样的	-10.4292
▁issued	-10.4293
生物	-10.4295
别	-10.4297
▁victims	-10.4304
▁只要	-10.4305
id	-10.4306
两年	-10.4306
超越	-10.431
一直是	-10.4313
的历史	-10.4316
▁apparent	-10.4319
time	-10.4321
创造了	-10.4328
成果	-10.433
▁england	-10.4331
▁managing	-10.4331
谷歌	-10.4331
▁occurred	-10.4331
▁exactly	-10.4333
▁represents	-10.4333
跨国	-10.4334
层面	-10.4338
▁没有	-10.4339
的债务	-10.4344
▁meant	-10.4347
合理的	-10.4348
表	-10.4349
喜欢	-10.435
终于	-10.4351
▁bottom	-10.4354
▁mark	-10.4355
损害	-10.4355
岛	-10.4362
▁institution	-10.4365
领域的	-10.4367
▁healthy	-10.4369
▁believed	-10.4369
▁emerge	-10.4369
▁1%	-10.4376
▁product	-10.4381
▁imply	-10.4382
▁launch	-10.4385
除	-10.4388
▁con	-10.439
心理	-10.4395
尼日利亚	-10.4402
▁indonesia	-10.4402
缓解	-10.4402
森林	-10.4402
▁cameron	-10.4402
▁ready	-10.4404
▁equivalent	-10.4407
▁nationalism	-10.4414
▁5%	-10.4417
▁fewer	-10.4422
拜	-10.4425
签署	-10.4426
▁exceed	-10.4427
道路	-10.4429
▁candidates	-10.4432
组成	-10.4432
带	-10.4444
运行	-10.4451
的事实	-10.4456
▁contracts	-10.447
古	-10.4471
▁nationalist	-10.4473
▁tobacco	-10.4473
▁thanks	-10.4474
▁equality	-10.4475
话	-10.4476
ent	-10.4477
▁race	-10.4477
ang	-10.448
的反应	-10.4482
新技术	-10.4486
没能	-10.4491
▁abe	-10.4494
▁previously	-10.4495
归	-10.4499
▁authoritarian	-10.4501
▁reports	-10.4501
的价值	-10.4502
成功地	-10.4504
▁draw	-10.4504
可持续发展	-10.4506
现状	-10.4514
保障	-10.4522
东亚	-10.4524
ac	-10.4532
▁25	-10.4535
▁eliminate	-10.4537
▁related	-10.4538
▁restore	-10.4541
毒品	-10.4545
缓慢	-10.4545
▁modest	-10.4545
▁regardless	-10.4547
▁liberalization	-10.4547
抗	-10.4551
▁identity	-10.4551
欧洲国家	-10.4552
建立一个	-10.4553
▁protecting	-10.4554
▁reaching	-10.4559
▁contributed	-10.456
的技术	-10.4565
图	-10.4572
然	-10.4573
▁$2	-10.4574
border	-10.4578
exchange	-10.4578
▁gained	-10.458
ton	-10.4587
合法	-10.4593
也应该	-10.4594
▁seriously	-10.4599
深入	-10.4599
经济复苏	-10.4604
电视	-10.4604
升值	-10.4605
饱受	-10.4617
▁dramatic	-10.4617
唐纳德	-10.4618
设备	-10.4618
▁securities	-10.4618
功能	-10.4618
▁chancellor	-10.4622
▁published	-10.4624
的经验	-10.4625
▁fixed	-10.4626
出来	-10.4632
▁meaning	-10.4634
▁protests	-10.4634
的决定	-10.4636
并将	-10.4644
pacific	-10.4651
覆盖	-10.4651
▁contain	-10.4661
▁looks	-10.4672
所以	-10.4674
▁urgent	-10.4679
吉	-10.4689
的确	-10.469
黎巴嫩	-10.4691
▁illegal	-10.4691
▁possibly	-10.4691
▁shanghai	-10.4691
立刻	-10.4691
获取	-10.4691
还能	-10.4692
男性	-10.4693
oriented	-10.4694
400	-10.4706
▁gav	-10.471
轮	-10.471
▁active	-10.4711
ll	-10.4713
▁v	-10.4716
担保	-10.4718
听	-10.472
困境	-10.4728
▁surely	-10.4728
而不	-10.4736
生存	-10.4752
▁kenya	-10.4753
和政治	-10.4753
▁correct	-10.4754
▁3%	-10.4756
▁embrace	-10.4756
▁enhance	-10.4756
英国的	-10.4756
▁不管	-10.4758
▁defeat	-10.4758
法案	-10.4762
▁80%	-10.4762
抗生素	-10.4764
▁asylum	-10.4764
▁ebola	-10.4764
▁wake	-10.4764
▁criticism	-10.4764
恐怖分子	-10.4764
▁nine	-10.4765
获胜	-10.4766
son	-10.477
▁facilitate	-10.4772
在全球	-10.4772
辩论	-10.4778
▁shock	-10.4778
▁emergence	-10.4779
though	-10.4783
▁added	-10.4793
整合	-10.4794
没有什么	-10.4794
▁elite	-10.4801
会在	-10.4803
▁imposed	-10.4805
常	-10.4809
的好处	-10.4814
受到了	-10.4814
兰	-10.4814
go	-10.4815
ex	-10.4821
▁destroy	-10.4821
合法性	-10.4824
某个	-10.4825
痛苦	-10.4826
正常	-10.4826
▁towards	-10.4826
塔	-10.4826
wa	-10.4828
票	-10.483
▁combat	-10.4834
▁aging	-10.4834
▁paying	-10.4834
动物	-10.4834
省	-10.4837
曼	-10.4838
▁wide	-10.4838
▁discipline	-10.4838
▁killed	-10.4848
个体	-10.4851
▁substantially	-10.4858
的理由	-10.4868
的角色	-10.4868
遵守	-10.4871
很大	-10.4872
▁mortgage	-10.4876
▁pattern	-10.4876
▁concerned	-10.4876
泰国	-10.4877
数百万	-10.4886
网	-10.4887
也必须	-10.4889
24	-10.4892
▁looking	-10.49
将成为	-10.49
off	-10.4902
百	-10.4909
bo	-10.491
否认	-10.4916
响应	-10.4916
▁欧洲的	-10.4917
法治	-10.4918
员	-10.4924
驱动	-10.4926
减速	-10.4927
▁accounting	-10.493
布什政府	-10.4931
▁approaches	-10.4931
荷兰	-10.4931
▁幸运的是	-10.4933
▁palestinians	-10.4938
财务	-10.4942
释放	-10.4947
我们可以	-10.495
ities	-10.495
列	-10.4953
crisis	-10.4954
cent	-10.4959
究竟	-10.4963
五年	-10.4966
▁60%	-10.4966
放在	-10.4967
台	-10.4972
200	-10.4974
投	-10.4977
et	-10.4977
脱离	-10.4981
▁weight	-10.4982
增长的	-10.4985
绝大多数	-10.4986
▁humanitarian	-10.4988
▁opposite	-10.4988
▁portugal	-10.4988
▁attractive	-10.4988
逆转	-10.4988
声明	-10.4988
▁accompanied	-10.4988
▁implementation	-10.499
工业化	-10.4991
third	-10.4996
青年	-10.4996
▁weather	-10.4999
▁girls	-10.5003
▁brics	-10.5003
▁disputes	-10.5006
恩	-10.5011
双	-10.5012
生产力	-10.5015
land	-10.5017
os	-10.5018
住	-10.5023
▁determined	-10.5024
▁stake	-10.5028
1980	-10.5033
新兴	-10.5035
降低了	-10.5037
一定	-10.5048
无疑	-10.5052
▁2002	-10.5054
▁affected	-10.5056
的资金	-10.5056
ho	-10.506
异	-10.5061
▁mobile	-10.5064
重塑	-10.5064
▁ethical	-10.5064
改进	-10.5065
▁setting	-10.5067
▁centers	-10.5069
▁gradually	-10.5072
▁humanity	-10.5073
▁notably	-10.5074
居	-10.5085
▁supporting	-10.509
▁gold	-10.5091
学者	-10.5094
▁第三	-10.5094
▁transfers	-10.5099
紧急	-10.5101
发布	-10.5101
经济衰退	-10.5103
意见	-10.5105
▁incentive	-10.5105
▁今年	-10.511
▁identify	-10.5112
亿欧元	-10.5114
时刻	-10.5116
偿还	-10.5118
影响到	-10.5119
以及其他	-10.512
▁transfer	-10.5122
▁figures	-10.5126
者的	-10.513
诊断	-10.5137
▁kosovo	-10.514
距离	-10.514
部队	-10.5141
日渐	-10.5141
▁engagement	-10.5141
▁withdrawal	-10.5142
太阳能	-10.5144
那种	-10.5144
▁representatives	-10.5145
▁researchers	-10.5148
领	-10.5149
▁engaged	-10.515
犯	-10.515
▁historic	-10.515
组合	-10.516
▁suffered	-10.5165
很快	-10.5168
ga	-10.5168
很有可能	-10.5169
买	-10.5176
情况下	-10.5176
冷战	-10.5179
的立场	-10.518
其他人	-10.518
2004	-10.5182
打破	-10.5189
关	-10.5193
想象	-10.5198
▁defined	-10.52
失去了	-10.5201
应该是	-10.5205
▁negotiate	-10.5209
ge	-10.5209
▁offering	-10.5211
垄断	-10.5211
▁depreciation	-10.5217
▁supplies	-10.5217
补偿	-10.5217
纠正	-10.5218
巴黎	-10.5222
接	-10.5223
▁august	-10.5224
言论	-10.5224
东欧	-10.5226
▁canada	-10.5227
▁leads	-10.5232
河	-10.5234
▁users	-10.5234
▁st	-10.5238
▁opponents	-10.5241
▁signed	-10.5244
面前	-10.5245
的领导人	-10.5246
的唯一	-10.5247
不需要	-10.5251
▁compromise	-10.5251
ke	-10.5252
幅度	-10.5254
资产价格	-10.5254
▁concept	-10.5258
country	-10.5265
那个	-10.5267
▁friends	-10.5267
预防	-10.5268
疲软	-10.5269
运用	-10.5271
▁globally	-10.5278
ated	-10.528
▁colombia	-10.5283
▁surprising	-10.5283
▁costly	-10.5288
ai	-10.5292
从事	-10.5294
那里	-10.5294
论坛	-10.5294
减税	-10.5295
抓住	-10.5296
▁el	-10.5296
烟草	-10.5298
延长	-10.53
▁recognition	-10.5304
▁killing	-10.5312
摧毁	-10.5315
怎样	-10.5317
调	-10.5317
▁guide	-10.5322
▁essentially	-10.5323
20%	-10.5325
▁preventing	-10.5326
中共	-10.5329
远远	-10.5336
▁po	-10.5341
▁showed	-10.5341
离开	-10.5343
▁networks	-10.5346
▁aids	-10.5347
▁vice	-10.5348
在很大程度上	-10.5359
▁proposals	-10.5362
▁die	-10.5364
▁survive	-10.5364
建	-10.5367
抵消	-10.537
渠道	-10.537
▁april	-10.5373
▁legitimate	-10.5373
▁populism	-10.5373
▁religion	-10.5373
▁sweden	-10.5373
▁borrowers	-10.5375
单	-10.5377
▁wanted	-10.5377
▁40	-10.5378
强势	-10.5379
▁google	-10.5382
▁extra	-10.5382
指	-10.5383
ha	-10.5383
▁reported	-10.5383
实体	-10.5386
主要是	-10.5387
掌握	-10.5388
▁11	-10.539
▁pull	-10.5391
所在	-10.5393
解	-10.5394
so	-10.5395
dominated	-10.5401
▁block	-10.5409
的法律	-10.5414
▁pa	-10.5416
▁sentiment	-10.5417
ors	-10.5418
▁candidate	-10.5419
▁iranian	-10.5421
富人	-10.5424
引发了	-10.5424
主义者	-10.5427
▁billions	-10.5432
ja	-10.5438
职业	-10.5442
▁micro	-10.5451
▁berlin	-10.5451
▁jinping	-10.5451
规范	-10.5451
的效果	-10.5451
判断	-10.5452
▁daily	-10.5452
▁imp	-10.5452
融入	-10.5453
▁macron	-10.5453
和美国	-10.5454
▁vladi	-10.5457
原因是	-10.5459
发明	-10.5462
的水平	-10.5464
▁managers	-10.547
优先	-10.5472
▁educational	-10.5475
▁expanded	-10.5481
▁accepted	-10.5491
▁shocks	-10.5492
合同	-10.5497
政	-10.5497
▁imperative	-10.5497
某	-10.5501
首相	-10.5513
也可能	-10.5515
的市场	-10.5518
组成的	-10.5521
每个	-10.5522
专业	-10.5523
潮	-10.5526
石	-10.553
▁assembly	-10.5531
▁简言之	-10.5531
看上去	-10.5531
▁bankruptcy	-10.5531
▁catch	-10.5531
授权	-10.5531
▁platforms	-10.5532
重视	-10.5532
用户	-10.5532
▁exposed	-10.5534
▁intended	-10.5535
▁painful	-10.5539
▁peaceful	-10.5539
▁emergency	-10.5544
保守党	-10.5547
▁appeal	-10.555
▁supporters	-10.555
和社会	-10.5561
认识	-10.5562
发生的	-10.5564
▁shifting	-10.5565
孤立	-10.5576
欧洲议会	-10.5577
的收入	-10.5578
é	-10.5579
是美国	-10.5589
▁stress	-10.5591
ni	-10.5592
▁travel	-10.5592
▁peak	-10.5593
▁德国	-10.56
总额	-10.5605
精	-10.5608
爱	-10.5608
是由	-10.5609
▁pressures	-10.561
埃塞俄比亚	-10.5611
▁employees	-10.5611
▁universities	-10.5611
塞尔维亚	-10.5611
注入	-10.5612
▁parliamentary	-10.5613
▁perceived	-10.5614
的最新	-10.5615
▁association	-10.5617
▁philippines	-10.562
▁印度	-10.5624
毒	-10.5624
的银行	-10.5625
▁promising	-10.5627
强硬	-10.5627
伊斯兰教	-10.5629
理性	-10.5634
保护主义	-10.5634
▁facebook	-10.5634
纳税人	-10.5643
▁par	-10.5643
▁sales	-10.5651
▁ideal	-10.5652
▁ignore	-10.5653
紧迫	-10.5655
病毒	-10.5655
low	-10.566
人物	-10.5664
driven	-10.5668
源	-10.5669
意识形态	-10.5674
高级	-10.5676
可靠的	-10.5682
廉价	-10.5691
▁legacy	-10.5691
▁remarkable	-10.5691
披露	-10.5691
▁restrictions	-10.5692
修改	-10.5692
步骤	-10.5692
法官	-10.5692
这个国家	-10.5692
文明	-10.5693
▁rose	-10.5694
群众	-10.5694
滥用	-10.5696
成长	-10.5697
经济政策	-10.5697
显而易见	-10.5697
各方	-10.5697
机器人	-10.5699
一些国家	-10.5705
下滑	-10.5705
▁structures	-10.5706
▁crimes	-10.5706
职位	-10.5708
的方案	-10.5714
▁zone	-10.5718
▁threatened	-10.5719
算	-10.5721
的人口	-10.5729
tion	-10.573
对待	-10.5732
▁occur	-10.5742
很容易	-10.5742
ven	-10.5746
▁pen	-10.5747
debt	-10.5751
引起了	-10.5753
▁standing	-10.5755
io	-10.5755
他人	-10.5756
▁venezuela	-10.5758
new	-10.5759
内战	-10.5765
涉及	-10.5768
但它	-10.5771
▁ending	-10.5772
]	-10.5773
▁survival	-10.5773
▁stagnation	-10.5773
▁grand	-10.5773
落实	-10.5773
▁neighbor	-10.5774
▁delay	-10.5775
▁crash	-10.5775
▁na	-10.5776
事业	-10.5779
俄	-10.578
还将	-10.5783
英国退欧	-10.5785
经济危机	-10.5788
ever	-10.5791
布鲁塞尔	-10.5792
民主的	-10.5792
底	-10.5792
便是	-10.5793
士	-10.5793
提出的	-10.5795
▁abandon	-10.5804
良好的	-10.5807
一下	-10.5812
显	-10.5814
▁closely	-10.5814
▁opening	-10.582
▁新	-10.5821
wide	-10.5821
▁tariffs	-10.5821
▁muslims	-10.5828
▁survey	-10.5828
nt	-10.5829
的增加	-10.5833
▁born	-10.5833
不满	-10.5835
发电	-10.5837
联	-10.5838
会导致	-10.584
回答	-10.5843
的巨大	-10.5846
多年	-10.5847
埃博拉	-10.5854
燃料	-10.5854
▁centuries	-10.5855
▁devastating	-10.5855
▁necessarily	-10.5855
▁scope	-10.5855
▁undermining	-10.5855
▁lebanon	-10.5855
▁periphery	-10.5856
▁为	-10.5857
原本	-10.5857
自动化	-10.5858
▁table	-10.586
因为它们	-10.5867
纳入	-10.5874
min	-10.5881
弱	-10.5887
▁finding	-10.589
右翼	-10.5893
也能	-10.5895
ring	-10.5898
有时	-10.5901
良好	-10.5904
个月	-10.5905
房价	-10.5912
的公司	-10.5916
的企业	-10.5918
china	-10.5919
能在	-10.592
▁retain	-10.592
行政	-10.5921
官僚	-10.5922
黑	-10.5923
例子	-10.5923
突破	-10.5925
结构性	-10.5925
她的	-10.5926
周	-10.5926
▁accelerate	-10.5929
ine	-10.5932
武装	-10.5932
▁spur	-10.5934
27	-10.5935
血	-10.5936
加上	-10.5937
▁offset	-10.5937
▁gaza	-10.5937
▁primarily	-10.5937
个百分点	-10.5937
▁islands	-10.5937
融合	-10.5938
▁pushing	-10.5939
年代的	-10.5939
公约	-10.5941
都必须	-10.5943
问责	-10.5947
害	-10.5949
▁entrepreneurs	-10.5951
深度	-10.5954
▁concluded	-10.5956
早期	-10.5956
二氧化碳	-10.5958
但其	-10.5958
的安全	-10.5961
▁included	-10.5963
不愿意	-10.5967
存款	-10.5968
渴望	-10.5971
理想	-10.5975
▁当时	-10.5976
▁甚至	-10.5977
恐慌	-10.598
▁...	-10.5981
自动	-10.5981
▁ocean	-10.5992
em	-10.5999
▁sheets	-10.5999
governmental	-10.5999
▁bold	-10.6007
▁tackle	-10.6013
▁conduct	-10.6014
流向	-10.6015
击	-10.6016
凯恩斯	-10.6019
▁inevitably	-10.6021
煽动	-10.6021
▁pact	-10.6021
▁momentum	-10.6021
分别	-10.6022
感觉	-10.6026
完美	-10.6027
▁weaker	-10.603
分享	-10.6031
唯一的	-10.6035
▁progressive	-10.6035
战斗	-10.6038
▁contributions	-10.6039
开展	-10.6043
的选择	-10.605
am	-10.6054
和经济	-10.6056
▁su	-10.6057
经济表现	-10.6057
▁moved	-10.6061
以下	-10.6062
加以	-10.6066
gi	-10.6067
教	-10.6067
致	-10.6068
动作	-10.6069
▁targeted	-10.6072
▁instruments	-10.6073
▁qe	-10.6078
视	-10.6081
竞选	-10.6084
▁$3	-10.6088
▁非洲	-10.6088
trade	-10.6089
▁libya	-10.6093
▁initial	-10.6093
借	-10.6096
银行的	-10.6097
会议上	-10.6098
兑现	-10.6105
▁nominal	-10.6105
▁stance	-10.6105
区别	-10.6105
古巴	-10.6105
反弹	-10.6106
转化为	-10.6106
▁vaccines	-10.6109
这位	-10.6113
却是	-10.6122
rich	-10.6129
断	-10.6129
▁sharing	-10.6131
劳动者	-10.6134
▁players	-10.6138
不少	-10.6139
抗议	-10.614
接触	-10.614
▁2011,	-10.6153
▁wave	-10.6157
占领	-10.6164
可能性	-10.6165
这两个	-10.6169
▁match	-10.6172
中期	-10.6173
过渡	-10.6175
所有人都	-10.6176
制约	-10.6176
真相	-10.6179
恐怖	-10.6182
积累	-10.6188
觉得	-10.6189
破坏性	-10.6189
班	-10.6189
▁nobel	-10.619
医院	-10.619
▁coordination	-10.619
▁advances	-10.6196
富裕国家	-10.6201
欧洲领导人	-10.6211
活力	-10.6215
▁美国的	-10.6217
▁closed	-10.6221
根	-10.6223
余	-10.6228
短	-10.6232
更是	-10.6236
八	-10.6236
大多	-10.6237
经合组织	-10.6238
特朗普的	-10.6242
▁cap	-10.6245
▁到	-10.6248
▁executive	-10.6249
▁improvement	-10.6252
▁alike	-10.6253
解决问题	-10.6254
的财政	-10.6256
▁考虑到	-10.6257
计	-10.6264
中有	-10.6264
证券	-10.6271
死刑	-10.6274
诺	-10.6274
▁relief	-10.6276
▁understood	-10.6277
▁bubbles	-10.6277
建立了	-10.6282
予以	-10.6285
人才	-10.6289
▁exist	-10.629
人数	-10.629
最好	-10.629
一半	-10.6292
▁systemic	-10.6293
用来	-10.6296
▁black	-10.63
的任务	-10.6302
举行的	-10.6303
基础设施投资	-10.6305
▁plant	-10.6316
▁seeming	-10.6321
菲律宾	-10.6329
营	-10.633
战后	-10.633
▁declaration	-10.6335
▁package	-10.6338
▁creates	-10.6338
▁threatening	-10.6342
che	-10.6345
小时	-10.6346
▁treat	-10.6346
四个	-10.6346
强烈	-10.6352
的基础上	-10.6354
▁professional	-10.6356
循环	-10.6357
的事情	-10.6358
▁murder	-10.6361
晚	-10.6361
▁expense	-10.6361
▁father	-10.6361
▁ideological	-10.6361
填补	-10.6361
结核病	-10.6361
▁minority	-10.6362
金砖国家	-10.6362
▁capable	-10.6362
信仰	-10.6363
为例	-10.6363
孟加拉国	-10.6363
决心	-10.6364
假	-10.6364
积极的	-10.6365
▁corrupt	-10.6367
端	-10.637
▁warning	-10.637
强劲	-10.6371
组	-10.6371
▁demonstrated	-10.6373
▁warned	-10.6373
▁无论	-10.6375
▁super	-10.6376
▁malaria	-10.6377
他们在	-10.6379
物质	-10.6384
▁compete	-10.6386
▁constraints	-10.6388
要想	-10.6388
明年	-10.6392
房	-10.6397
▁exception	-10.6399
▁美联储	-10.64
▁risky	-10.6401
▁j	-10.6404
▁regarded	-10.6407
的真正	-10.6408
出现在	-10.6414
fa	-10.6415
▁1960	-10.6428
义务	-10.6429
5,000	-10.6432
地方政府	-10.6433
这种情况	-10.6435
▁budgets	-10.6438
参与者	-10.6438
的信息	-10.6439
敏感	-10.6439
▁replace	-10.6439
活	-10.644
南部	-10.6443
sdg	-10.6447
▁kremlin	-10.6448
▁ownership	-10.6448
▁presence	-10.6448
▁downturn	-10.6449
▁downward	-10.645
▁calling	-10.6452
▁在这方面	-10.6456
nd	-10.6457
pe	-10.6458
▁rejected	-10.6461
▁10	-10.6462
▁日本	-10.6465
换	-10.6472
化的	-10.6482
ko	-10.6483
▁customers	-10.649
升	-10.6494
教育和	-10.6497
reaching	-10.65
▁material	-10.65
暂时	-10.6501
还在	-10.6503
物种	-10.6503
绝非	-10.6504
的经济增长	-10.651
▁explanation	-10.6511
特殊	-10.6511
危机的	-10.6512
▁tests	-10.6512
▁trial	-10.6513
▁innovations	-10.6514
违反	-10.6515
有望	-10.6515
▁failures	-10.6517
对欧洲	-10.6517
恶	-10.6519
印	-10.6519
▁linked	-10.652
不太可能	-10.6521
▁adequate	-10.6524
▁deposits	-10.6525
你们	-10.6527
▁abuse	-10.6528
发动	-10.6532
做出了	-10.6534
▁wish	-10.6534
势	-10.6535
▁terrorists	-10.6536
▁operating	-10.6536
扭转	-10.6536
教授	-10.6536
以至于	-10.6536
出台	-10.6538
学家	-10.6539
ning	-10.6542
▁older	-10.6548
▁wealthy	-10.6549
▁ill	-10.6553
▁adjust	-10.6559
▁这是一个	-10.6561
威胁到	-10.6566
这些人	-10.6568
亿人	-10.6569
ft	-10.6569
▁surge	-10.6571
降	-10.6576
▁profit	-10.6576
▁allows	-10.6576
▁populists	-10.6581
北	-10.6585
▁所以	-10.6585
▁obligations	-10.6587
rights	-10.6588
▁smart	-10.6589
年度	-10.6589
世界各国	-10.6591
伙伴关系	-10.6593
年中	-10.6595
给了	-10.6599
专注于	-10.66
▁settlement	-10.6601
工党	-10.6605
▁sa	-10.6605
但也	-10.6606
赋予	-10.6608
个国家	-10.6609
温和	-10.661
的军事	-10.6612
退欧	-10.6612
被认为是	-10.6616
▁nigeria	-10.6618
共享	-10.6618
城	-10.662
构成了	-10.6622
▁strongly	-10.6623
补充	-10.6624
▁manipulation	-10.6624
▁nowadays	-10.6624
复兴	-10.6624
冒险	-10.6624
▁weakness	-10.6626
深化	-10.663
沦为	-10.6633
▁define	-10.6633
▁informal	-10.6634
这样一个	-10.6636
独裁	-10.664
所产生的	-10.6641
期望	-10.6646
▁ex	-10.6647
▁hu	-10.6652
与中国	-10.6654
金融部门	-10.6656
准确	-10.6657
切	-10.6661
杠杆	-10.667
的民主	-10.667
▁vehicles	-10.6672
▁prevail	-10.6673
但它们	-10.6677
相对于	-10.6681
才会	-10.6681
▁wait	-10.6685
伊斯兰国	-10.6687
非洲的	-10.6687
▁dependent	-10.6687
塞	-10.6687
梦	-10.6695
传	-10.6704
▁bangladesh	-10.6704
现	-10.6705
style	-10.6706
流入	-10.6708
油价	-10.671
的过程中	-10.671
飞	-10.6711
中间	-10.6712
已经成为	-10.6712
号	-10.6713
伦	-10.6713
▁buying	-10.6714
清晰	-10.6714
▁applied	-10.6714
▁capabilities	-10.6714
▁statistics	-10.6714
主宰	-10.6714
小组	-10.6714
▁displaced	-10.6715
▁reasonable	-10.6722
看似	-10.6723
▁feed	-10.6726
后来	-10.6729
命	-10.6733
愿景	-10.6737
都不	-10.6737
▁obviously	-10.6739
财政赤字	-10.6739
▁fragile	-10.674
已有	-10.6744
所有的	-10.6747
也许是	-10.6748
▁pass	-10.675
更有	-10.6752
医学	-10.6763
复杂的	-10.6763
▁deals	-10.6769
美国在	-10.6769
告诉	-10.677
浪费	-10.6773
▁dispute	-10.6774
ard	-10.6781
▁exploit	-10.6785
▁exercise	-10.6787
领导的	-10.6794
账户	-10.6796
索	-10.6797
特定	-10.6798
乱	-10.6798
包含	-10.6798
在这方面	-10.6799
power	-10.68
洛	-10.6802
试验	-10.6803
销售	-10.6803
约翰	-10.6804
▁twice	-10.6804
▁resort	-10.6804
乔治	-10.6804
马克龙	-10.6804
沙特阿拉伯	-10.6804
推广	-10.6804
▁divide	-10.6804
▁viable	-10.6805
▁coverage	-10.6805
交流	-10.6805
▁realize	-10.6806
▁deny	-10.6806
的要求	-10.6815
的所有	-10.6819
都能	-10.6821
300	-10.6823
僵局	-10.6828
时候	-10.6835
的关注	-10.684
的最佳	-10.6841
受益	-10.6841
以后	-10.6844
▁protest	-10.6845
▁counterparts	-10.6846
的最	-10.685
50%	-10.6852
可靠	-10.6862
▁90%	-10.6863
▁accord	-10.6866
▁implementing	-10.6869
不应	-10.687
▁farm	-10.6877
▁polls	-10.6877
▁trap	-10.6886
实践	-10.6889
之处	-10.6889
▁escape	-10.689
逻辑	-10.689
▁suit	-10.6893
星	-10.6893
▁content	-10.6895
▁supreme	-10.6895
▁transparent	-10.6895
监控	-10.6895
▁consolidation	-10.6895
▁chairman	-10.6895
的战争	-10.6895
伴随着	-10.6896
▁via	-10.6896
过去的	-10.6897
▁carried	-10.6899
▁2050	-10.69
广	-10.6905
造	-10.6913
iv	-10.6917
以确保	-10.6918
▁joined	-10.692
▁欧洲央行	-10.6922
red	-10.6932
的下降	-10.6933
▁还有	-10.6934
ru	-10.6935
是否会	-10.6938
几十年	-10.6941
▁世界	-10.6944
任期	-10.695
▁contribution	-10.6967
▁2018	-10.6967
满	-10.6968
恐惧	-10.6969
最好的	-10.6972
留下	-10.6973
bi	-10.6977
▁di	-10.6982
price	-10.6984
更不用说	-10.6984
▁prefer	-10.6985
歧视	-10.6986
▁empire	-10.6986
苏格兰	-10.6986
▁enabling	-10.6986
3⁄4	-10.6986
疟疾	-10.6986
▁repression	-10.6987
霸权	-10.6987
national	-10.6987
花费	-10.6987
▁workforce	-10.6988
不久前	-10.6988
▁says	-10.699
▁opposed	-10.6994
变成	-10.6994
▁slower	-10.6995
运	-10.6996
立即	-10.7002
2050	-10.7002
mb	-10.7002
有利	-10.7004
加大	-10.7004
建立在	-10.7004
经济和	-10.7007
fi	-10.7007
结构性改革	-10.7009
▁broadly	-10.701
吸引力	-10.701
▁harder	-10.701
第一个	-10.7013
库	-10.7013
紧密	-10.7013
▁served	-10.7022
▁mere	-10.7024
的共同	-10.7024
▁毫无疑问	-10.7026
也不是	-10.7027
伟大	-10.7031
的最大	-10.7032
▁enabled	-10.7033
观察	-10.7034
银行家	-10.7034
愤怒	-10.7038
深刻	-10.7041
清楚	-10.7047
在今年	-10.7048
▁foster	-10.7051
的建议	-10.7053
实施了	-10.7056
丧失	-10.7058
预	-10.706
▁donors	-10.7066
稳定的	-10.7067
人群	-10.7067
意识	-10.7069
惊	-10.7073
的能源	-10.7074
敦促	-10.7079
▁undoubtedly	-10.7079
▁woman	-10.7079
秘密	-10.7079
乃至	-10.7079
消耗	-10.7079
▁kept	-10.7079
▁mainstream	-10.7079
低利率	-10.7079
需	-10.708
加快	-10.708
ward	-10.7082
▁flexibility	-10.7083
▁tb	-10.7083
工厂	-10.7084
▁participants	-10.7091
estate	-10.7092
▁interventions	-10.7093
词	-10.7093
▁revealed	-10.7094
35	-10.7096
▁就像	-10.7096
▁haven	-10.7098
▁100	-10.71
men	-10.71
扮演	-10.7107
▁除非	-10.7121
推翻	-10.7124
的谈判	-10.7133
使其	-10.7134
▁newly	-10.7135
他在	-10.7137
硬	-10.7138
清	-10.7141
品	-10.7142
显得	-10.7144
领导力	-10.7145
▁1997	-10.7149
的看法	-10.7156
▁reverse	-10.7164
▁chains	-10.7168
流行	-10.7169
9%	-10.7169
奥地利	-10.7172
▁aftermath	-10.7172
’	-10.7172
▁congressional	-10.7172
▁labour	-10.7172
暴跌	-10.7173
▁multiple	-10.7173
连续	-10.7173
ung	-10.7173
▁steel	-10.7173
动员	-10.7173
施加	-10.7175
45	-10.7175
等待	-10.7176
自然资源	-10.7176
直	-10.7177
▁repeatedly	-10.718
犹太人	-10.718
相同	-10.7184
▁fire	-10.7184
▁rational	-10.7185
80%	-10.7187
▁completely	-10.7188
▁governing	-10.7189
▁unity	-10.7189
院	-10.719
▁encouraged	-10.7192
企业家	-10.7194
▁pursued	-10.7196
▁blood	-10.7198
▁inspire	-10.72
▁lay	-10.7205
▁70%	-10.7209
▁cars	-10.722
▁norms	-10.7223
的错误	-10.7223
朋友	-10.7229
糟糕	-10.7234
管	-10.7235
设立	-10.7242
▁crime	-10.7246
巴勒斯坦人	-10.7253
▁perfect	-10.7256
▁但我们	-10.7256
▁60	-10.7258
▁acknowledge	-10.7258
▁她	-10.7259
节	-10.7259
缺口	-10.7262
款	-10.7262
▁speed	-10.7262
vis	-10.7264
九	-10.7265
赫	-10.7266
痛	-10.7267
葡萄牙	-10.7267
▁diverse	-10.7267
▁latter	-10.7267
▁recognizing	-10.7267
▁series	-10.7267
团队	-10.7267
▁俄罗斯	-10.7267
西藏	-10.7267
▁bigger	-10.7268
发放	-10.7268
意外	-10.727
eu	-10.7274
▁rarely	-10.7277
发达	-10.7279
两次	-10.7284
英国脱欧	-10.7287
没有人	-10.7296
还必须	-10.7298
ap	-10.73
对欧盟	-10.7301
▁successfully	-10.7305
的现实	-10.7307
更好地	-10.731
▁strengthened	-10.7312
不必	-10.7312
蒙	-10.7312
▁claimed	-10.7316
▁parents	-10.7317
削弱了	-10.7324
的前景	-10.7324
▁returned	-10.7334
all	-10.7335
▁yields	-10.7338
▁charge	-10.7338
▁balanced	-10.7339
这些问题	-10.7343
▁department	-10.7345
▁talent	-10.7345
背后	-10.7345
▁slowing	-10.7352
▁ka	-10.7354
▁narrative	-10.7355
照	-10.7359
油	-10.736
最初	-10.7362
害怕	-10.7362
▁concrete	-10.7362
估算	-10.7362
▁caught	-10.7362
▁hurt	-10.7362
▁affordable	-10.7365
而这	-10.7367
▁aims	-10.7368
including	-10.7369
▁released	-10.7371
▁properly	-10.7372
▁copenhagen	-10.7374
可持续性	-10.7374
▁apparently	-10.7378
▁ra	-10.7379
只有在	-10.7379
▁chair	-10.738
更具	-10.7381
指控	-10.7381
不足以	-10.7382
通胀率	-10.7384
留在	-10.7386
一个国家	-10.7391
▁antibiotics	-10.7394
的反	-10.7396
▁commit	-10.7398
推迟	-10.7399
一开始	-10.7402
▁aside	-10.7406
um	-10.7408
彼此	-10.7408
▁acting	-10.7409
▁advantages	-10.7411
ng	-10.7411
站	-10.7412
左翼	-10.7412
▁educated	-10.7414
能让	-10.7415
oc	-10.7418
的基本	-10.7422
或是	-10.7424
总需求	-10.7425
加剧了	-10.7426
▁arrangements	-10.7433
是错误的	-10.7434
▁elements	-10.7434
的代价	-10.744
每天	-10.7441
▁strike	-10.7442
的形式	-10.7445
▁separate	-10.7446
▁consistent	-10.7447
版	-10.7447
与其他	-10.7447
下的	-10.7447
在这个	-10.7452
财政部长	-10.7453
师	-10.7455
生态	-10.7456
倾向	-10.7456
破	-10.7456
tri	-10.7457
▁alternatives	-10.7457
藏	-10.7457
预算赤字	-10.7458
▁uncertain	-10.7458
▁emphasis	-10.7458
▁myanmar	-10.7458
▁square	-10.7458
▁wrote	-10.7458
reliance	-10.7458
▁minimum	-10.7458
▁spanish	-10.7458
跨境	-10.7458
▁senate	-10.7458
广告	-10.7458
▁gulf	-10.7458
正义	-10.7459
▁法国	-10.7459
生态系统	-10.746
让人们	-10.7461
30%	-10.7462
▁paul	-10.7463
▁actual	-10.7464
温	-10.7467
tech	-10.7468
▁attempts	-10.7469
借款人	-10.7469
▁generating	-10.7472
▁san	-10.7475
英镑	-10.7475
party	-10.7476
而在	-10.748
并不能	-10.7483
▁reputation	-10.749
增	-10.7499
改	-10.7503
得不到	-10.7504
七	-10.7506
▁logic	-10.7506
实现这一目标	-10.7511
落后	-10.7512
▁trans	-10.7513
thirds	-10.7514
将导致	-10.7517
传染病	-10.7518
day	-10.752
领导层	-10.752
的比例	-10.7522
▁dealing	-10.7524
▁version	-10.7529
▁courts	-10.753
绝	-10.7531
结	-10.7532
▁unit	-10.7533
解体	-10.754
▁assessment	-10.7541
息	-10.7547
素	-10.7549
沙特	-10.755
▁transport	-10.7554
迄今为止	-10.7555
sahara	-10.7555
▁atmosphere	-10.7555
▁female	-10.7555
▁turmoil	-10.7555
收缩	-10.7555
▁prosperous	-10.7555
案件	-10.7556
▁shale	-10.7556
▁secular	-10.7557
在去年	-10.7558
答案	-10.7558
英格兰银行	-10.7559
明确的	-10.756
▁fate	-10.756
战胜	-10.7563
growth	-10.7566
23	-10.757
▁votes	-10.7572
故事	-10.7575
关闭	-10.7576
已成为	-10.7577
极大	-10.758
▁voted	-10.7586
的合作	-10.7586
▁mission	-10.7586
出了	-10.7591
▁delivered	-10.7592
▁heads	-10.7599
观念	-10.76
ious	-10.7603
ial	-10.7605
进而	-10.761
▁david	-10.7612
ese	-10.7612
28	-10.7613
的胜利	-10.7619
不够	-10.7619
▁如此	-10.763
▁blow	-10.7631
▁write	-10.7632
美国和欧洲	-10.7635
▁signal	-10.7635
众	-10.7636
▁leaves	-10.7638
农	-10.7639
减排	-10.7639
▁devaluation	-10.7639
岗位	-10.764
▁governor	-10.764
停	-10.7643
受害者	-10.7648
▁convention	-10.7648
考验	-10.7649
▁secret	-10.7652
阻挠	-10.7653
可谓	-10.7653
▁diversity	-10.7653
▁sarkozy	-10.7653
▁struggling	-10.7653
▁valuable	-10.7653
▁variety	-10.7653
顾问	-10.7653
示威	-10.7654
认可	-10.7654
▁somewhat	-10.7656
▁constitute	-10.7658
公共部门	-10.766
▁posed	-10.766
▁effectiveness	-10.7661
甚至是	-10.7662
av	-10.7662
取得成功	-10.7663
集中在	-10.7664
即将到来的	-10.7667
▁christian	-10.7671
不稳定	-10.7671
▁generated	-10.7672
▁nineteenth	-10.7675
性别	-10.7675
在一个	-10.7677
动摇	-10.7677
费用	-10.7681
▁tightening	-10.7681
▁improvements	-10.7683
▁couple	-10.7687
主权债务	-10.7692
ging	-10.7701
来看	-10.7701
▁patterns	-10.7702
也不能	-10.7704
▁fulfill	-10.7706
▁watch	-10.7707
其在	-10.7713
fe	-10.772
▁华盛顿	-10.7722
下去	-10.7723
▁比方说	-10.7727
▁mix	-10.7735
实体经济	-10.7736
▁欧元区	-10.7739
▁academic	-10.7739
▁provision	-10.7739
40%	-10.774
便利	-10.7741
跌	-10.7743
▁root	-10.7743
▁stimulate	-10.7744
团	-10.7745
结构改革	-10.7745
转移到	-10.7746
史	-10.7746
权威	-10.7746
密	-10.7746
long	-10.7747
▁terror	-10.775
▁southeast	-10.7751
鲁	-10.7752
守	-10.7752
▁negotiating	-10.7752
▁outlook	-10.7752
▁sudan	-10.7752
▁television	-10.7752
约旦	-10.7752
angela	-10.7753
运转	-10.7753
印尼	-10.7753
加沙	-10.7753
▁estate	-10.7753
▁specifically	-10.7753
的趋势	-10.7753
▁dependence	-10.7759
▁suddenly	-10.7761
庞大的	-10.7762
成为了	-10.7762
存在的	-10.7765
防御	-10.7768
▁creative	-10.7768
▁stem	-10.777
▁尤其是	-10.7772
▁lie	-10.7772
▁producing	-10.7773
quality	-10.7773
中国人民银行	-10.7773
的策略	-10.7775
快速增长	-10.7778
▁severely	-10.778
债	-10.7782
也需要	-10.7783
▁1989	-10.7785
▁让	-10.7788
早就	-10.7788
观	-10.779
广泛的	-10.7794
自由化	-10.7795
变成了	-10.7796
的时代	-10.7798
整	-10.7802
为此	-10.7807
qu	-10.7808
存在着	-10.7818
和解	-10.783
▁express	-10.7834
▁temperatures	-10.7835
动机	-10.7838
更多地	-10.7839
▁links	-10.7841
信誉	-10.7841
▁loan	-10.7841
资本市场	-10.7841
▁oppose	-10.7844
增长模式	-10.7845
查	-10.7847
食	-10.7848
扎	-10.7852
颠覆	-10.7852
▁bernanke	-10.7852
▁february	-10.7852
▁inclusion	-10.7852
▁purchasing	-10.7852
匈牙利	-10.7852
▁thailand	-10.7852
▁persistent	-10.7852
绝望	-10.7852
▁genetic	-10.7853
安倍	-10.7853
审查	-10.7854
der	-10.7856
大众	-10.7858
各自	-10.786
近期	-10.7863
2.5	-10.7864
▁initially	-10.7866
2002	-10.7868
▁code	-10.7868
▁flexible	-10.7868
▁过去	-10.7874
▁examples	-10.7875
的道路	-10.7876
拿	-10.7876
驻	-10.7878
国防	-10.7879
▁hill	-10.788
到来	-10.7889
▁pointed	-10.7894
求	-10.7896
形	-10.7903
▁resist	-10.7907
但他们	-10.7912
少数	-10.7914
▁shifts	-10.7917
▁holds	-10.7917
▁dead	-10.7919
层	-10.7926
财	-10.7926
不管是	-10.7942
▁conclusion	-10.7942
▁ha	-10.7942
急剧	-10.7951
▁computer	-10.7951
救	-10.7952
responsibilities	-10.7953
▁challenging	-10.7953
▁college	-10.7953
▁mobility	-10.7953
▁resilience	-10.7953
▁turkish	-10.7953
▁wisdom	-10.7953
▁staff	-10.7953
利息	-10.7953
的影响力	-10.7954
▁$100	-10.7955
▁barely	-10.7955
解放	-10.7955
外界	-10.7956
加州	-10.7956
不过	-10.7958
▁stopped	-10.7959
元	-10.7961
▁17	-10.7965
许多国家	-10.7967
人口的	-10.7974
sa	-10.7974
伦理	-10.7979
不太	-10.798
繁荣的	-10.7987
▁slowly	-10.799
穷国	-10.7998
▁weaken	-10.8003
随	-10.8003
一段时间	-10.8017
超级	-10.8019
▁另一个	-10.802
人们的	-10.8023
决定性	-10.8025
怀	-10.8028
的概念	-10.803
▁最终	-10.8032
背景	-10.8033
赢得了	-10.8034
胜	-10.8035
ship	-10.8035
▁read	-10.8039
证	-10.8046
▁stabilize	-10.8047
提高了	-10.805
坚定	-10.805
不利	-10.805
过多	-10.8051
散	-10.8052
▁expenditures	-10.8053
森	-10.8055
▁expertise	-10.8055
瑞士	-10.8056
借助	-10.8056
▁flight	-10.8056
▁inflows	-10.8056
计算机	-10.8056
▁broken	-10.8057
另一种	-10.8058
▁voice	-10.8062
金融稳定	-10.8064
这些措施	-10.8066
▁burma	-10.8067
▁false	-10.807
▁someone	-10.8071
税率	-10.8072
政府债券	-10.8072
▁spirit	-10.8073
病人	-10.8074
有关的	-10.8075
▁conducted	-10.8076
▁poorer	-10.808
▁taxpayers	-10.808
的移民	-10.8086
▁13	-10.8089
▁chemical	-10.809
的解决方案	-10.8093
为其	-10.8097
民粹主义者	-10.8099
蔓延	-10.8108
▁transform	-10.8111
其他地方	-10.8113
防	-10.8117
自由民主	-10.8119
▁但这些	-10.8123
not	-10.8131
可行的	-10.8132
公司的	-10.8135
▁问题在于	-10.8136
时代的	-10.8137
马上	-10.8137
尚	-10.8139
cu	-10.814
本人	-10.8143
第三	-10.8144
的危机	-10.8145
在一起	-10.8147
▁gradual	-10.8147
▁rare	-10.8149
会带来	-10.815
▁ethiopia	-10.8151
倾向于	-10.8152
享受	-10.8152
议员	-10.8156
伤	-10.8157
博	-10.8158
探讨	-10.8158
宣言	-10.8158
众议院	-10.8158
养老金	-10.8159
低迷	-10.816
丹麦	-10.816
▁cast	-10.816
▁wider	-10.8161
再加上	-10.8162
▁statement	-10.8164
一再	-10.817
高效	-10.8171
片	-10.8172
▁policymaking	-10.8173
▁ignored	-10.8178
▁不仅	-10.8178
32	-10.818
而已	-10.818
欧盟国家	-10.8181
▁revolutionary	-10.8181
支持的	-10.8186
共产党	-10.8194
独裁者	-10.8195
▁risen	-10.8195
始于	-10.8198
各个	-10.8206
英国人	-10.8207
必须在	-10.8208
▁measured	-10.821
▁meetings	-10.8211
自由贸易	-10.8212
不了	-10.8218
这一趋势	-10.8224
▁relationships	-10.8225
▁但这一	-10.8226
8%	-10.8227
毫无疑问	-10.8231
的状况	-10.8231
两种	-10.8233
的规模	-10.8234
istic	-10.8237
的决策	-10.8238
独	-10.824
les	-10.8241
抛弃	-10.8242
公共卫生	-10.8245
▁responses	-10.8249
逃	-10.8249
▁participate	-10.8254
▁medicine	-10.8255
▁camp	-10.8256
▁representative	-10.8256
杰	-10.8258
▁serbia	-10.8259
▁fueling	-10.8259
儿	-10.8261
兵	-10.8262
勒	-10.8262
▁unwilling	-10.8263
▁advice	-10.8263
▁plenty	-10.8263
▁shadow	-10.8263
▁sophisticated	-10.8263
▁worried	-10.8263
饥饿	-10.8263
塞浦路斯	-10.8263
挪威	-10.8263
▁collaboration	-10.8263
倒闭	-10.8263
改变了	-10.8264
▁renewed	-10.8266
▁decisive	-10.8268
读	-10.827
平民	-10.8271
▁meaningful	-10.8272
这将	-10.8275
存	-10.8275
结论	-10.8275
家族	-10.8279
▁treated	-10.8283
ped	-10.8285
最严重的	-10.8288
一边	-10.8289
▁art	-10.8289
▁ca	-10.8291
的信心	-10.8293
▁kim	-10.8296
▁suggested	-10.83
▁奥巴马	-10.8304
外国人	-10.8312
2018	-10.8312
▁attempting	-10.8319
社会主义	-10.8319
微	-10.832
▁reveal	-10.8322
额外	-10.8323
▁publicly	-10.8328
▁sw	-10.8333
独立的	-10.8333
埃	-10.8335
的大规模	-10.8338
很高	-10.8338
排	-10.8339
治	-10.8341
奥巴马政府	-10.8343
有必要	-10.8346
ow	-10.835
▁guarantees	-10.8353
的资源	-10.8353
占据	-10.8358
▁capture	-10.836
▁panel	-10.8361
▁reaction	-10.8362
▁vaccine	-10.8362
▁islamist	-10.8363
分散	-10.8364
▁grave	-10.8366
背后的	-10.8366
膨胀	-10.8367
▁communication	-10.8367
▁brutal	-10.8367
抱怨	-10.8368
▁appreciation	-10.8368
▁harvard	-10.8368
▁netherlands	-10.8368
克里姆林宫	-10.8368
剧烈	-10.8368
电影	-10.8368
▁curb	-10.8368
▁considerably	-10.8369
▁其他	-10.8369
▁saw	-10.837
另一	-10.8371
▁justify	-10.8372
▁convinced	-10.8374
▁outright	-10.8377
▁你	-10.8379
▁巴西	-10.838
▁mu	-10.8382
几个月	-10.8386
艰难	-10.8386
▁refuse	-10.8388
政府在	-10.8388
社会保障	-10.8391
生产率增长	-10.8392
根本不	-10.8393
经济活动	-10.8393
1997	-10.8395
health	-10.8396
新兴国家	-10.8398
▁executives	-10.84
会产生	-10.8402
▁afghan	-10.8404
▁function	-10.8404
即使是	-10.8404
公正	-10.8405
十年前	-10.8408
工会	-10.8409
▁declined	-10.841
形成了	-10.8411
股价	-10.8411
对立	-10.8412
依赖于	-10.8413
市场经济	-10.8413
▁indicators	-10.8419
起诉	-10.8424
长达	-10.8429
富有	-10.8436
▁dominate	-10.8436
庞大	-10.8439
没有任何	-10.8445
就将	-10.8446
▁bit	-10.845
席位	-10.8455
禁	-10.8455
ned	-10.846
▁preserve	-10.846
▁adverse	-10.8463
日本的	-10.8464
前进	-10.8466
壁垒	-10.8472
败	-10.8472
▁conclude	-10.8473
▁retail	-10.8473
吃	-10.8474
苏	-10.8474
飙升	-10.8474
▁blair	-10.8474
▁damaging	-10.8474
▁eager	-10.8474
塔利班	-10.8474
•	-10.8474
▁stories	-10.8474
衰落	-10.8474
布莱尔	-10.8474
▁multinational	-10.8475
▁park	-10.8478
▁sent	-10.8478
▁carefully	-10.8484
▁heard	-10.8486
▁25%	-10.8487
▁expressed	-10.8493
▁neo	-10.8495
▁minds	-10.8499
不存在	-10.85
▁所有这些	-10.8502
欧元区国家	-10.8502
▁triggered	-10.8503
是什么	-10.8507
公民社会	-10.8508
此类	-10.8512
民主制度	-10.8514
▁payment	-10.8514
▁got	-10.8517
▁responded	-10.8518
▁soes	-10.8519
▁gives	-10.8519
▁sunni	-10.8525
期待	-10.8527
▁command	-10.8529
英国退出	-10.853
ify	-10.8532
但这	-10.8533
▁将	-10.8534
仍是	-10.8534
▁要想	-10.8535
转移支付	-10.8543
大银行	-10.8544
▁coup	-10.8546
ions	-10.855
不确定	-10.8555
美国和	-10.8556
mer	-10.8562
▁1950	-10.8564
法规	-10.8565
▁quick	-10.857
悲剧	-10.8574
▁condition	-10.8575
情报	-10.8577
▁bloc	-10.8577
崩盘	-10.858
▁absorb	-10.858
学术	-10.8581
▁reluctant	-10.8582
训练	-10.8582
华尔街	-10.8582
地中海	-10.8582
何种	-10.8582
无人机	-10.8582
周边	-10.8582
设定	-10.8582
远离	-10.8583
一步	-10.8583
▁urbanization	-10.8584
的金融	-10.8585
▁frequently	-10.8589
▁sold	-10.8589
激烈	-10.8595
来自于	-10.8597
软实力	-10.8599
▁charges	-10.86
透明度	-10.8605
通胀目标	-10.8605
▁tool	-10.8608
转变为	-10.8609
interest	-10.8614
忽略	-10.8618
▁mar	-10.8623
设施	-10.8625
60%	-10.8629
▁engineering	-10.8635
▁fundamentally	-10.8635
减少了	-10.8635
▁runs	-10.8636
华盛顿	-10.8643
果	-10.8643
其实是	-10.8645
显而易见的	-10.8646
走出	-10.8646
▁14	-10.8649
让美国	-10.865
▁happening	-10.865
不平衡	-10.8654
▁maintained	-10.8661
领导者	-10.8664
卡梅伦	-10.8665
▁fundamentals	-10.8666
包容	-10.8668
不仅是	-10.8671
▁restrict	-10.8672
▁tight	-10.8678
▁artificial	-10.8679
装	-10.8681
萧条	-10.8683
政治和经济	-10.8684
ak	-10.8686
▁fit	-10.8686
征	-10.8688
▁consequence	-10.8688
销	-10.8688
领先	-10.869
墙	-10.869
▁如果我们	-10.869
▁berkeley	-10.869
审判	-10.869
沟通	-10.869
▁honor	-10.8691
依据	-10.8691
危害	-10.8691
▁voting	-10.8691
果断	-10.8691
缩小	-10.8691
野心	-10.8691
提案	-10.8691
▁saying	-10.8695
电子	-10.8698
工作的	-10.8699
▁routine	-10.8702
▁另一方面	-10.8704
做到	-10.8705
座	-10.8709
▁purchase	-10.871
莱	-10.8712
▁resulted	-10.8712
▁apart	-10.8713
亚洲国家	-10.8716
兼	-10.8716
下来	-10.8716
▁于是	-10.8719
▁weakening	-10.8721
▁died	-10.8722
证据表明	-10.8724
cost	-10.8728
类似于	-10.8732
退休	-10.8735
最佳	-10.8735
▁shareholders	-10.8739
▁并	-10.874
qe	-10.874
▁gun	-10.8741
亚洲的	-10.8745
股	-10.8747
▁enjoy	-10.8751
生活水平	-10.8764
目的是	-10.8769
▁ambitions	-10.8769
▁shares	-10.8771
族	-10.8772
者们	-10.8778
▁rein	-10.8781
人为	-10.8783
▁route	-10.8783
▁concerning	-10.8784
略	-10.8788
起作用	-10.8791
还可以	-10.8795
▁opened	-10.8795
也因此	-10.8796
丑闻	-10.8797
forcing	-10.8797
▁但中国	-10.8798
▁scheme	-10.8799
▁platform	-10.8799
菲	-10.88
▁accident	-10.88
▁experiencing	-10.88
兹	-10.88
检查	-10.88
暗示	-10.88
依旧	-10.8801
动态	-10.8801
现任	-10.8801
食物	-10.8801
▁pool	-10.8801
▁simultaneously	-10.8804
欧洲大陆	-10.8804
的命运	-10.8808
工作岗位	-10.881
▁coordinated	-10.881
▁analysts	-10.8814
▁assumed	-10.8814
几乎没有	-10.8814
▁usual	-10.8819
▁waste	-10.8821
▁pain	-10.8824
件	-10.883
美国国会	-10.8835
2,000	-10.8835
2003	-10.8838
者和	-10.8839
600	-10.8839
▁predicted	-10.8839
tax	-10.8841
ten	-10.8842
仅有	-10.8843
▁atlantic	-10.8845
坐	-10.8846
有效地	-10.8849
体现	-10.885
理应	-10.8852
极端主义	-10.8854
▁mortgages	-10.8856
gu	-10.8857
四年	-10.8865
至今	-10.8867
该计划	-10.8868
▁即便	-10.8869
发出	-10.8869
因为这	-10.8872
为基础的	-10.8873
二战	-10.8874
▁benefited	-10.8877
▁更	-10.8883
超过了	-10.8886
▁eyes	-10.8895
ger	-10.8898
▁全球	-10.8899
送	-10.89
色	-10.8905
干涉	-10.8905
福	-10.8905
陷阱	-10.8909
▁prison	-10.891
牌	-10.891
袭	-10.8911
▁showing	-10.8911
延续	-10.8911
焦虑	-10.8911
突尼斯	-10.8911
▁anniversary	-10.8911
▁problematic	-10.8911
▁taliban	-10.8911
▁virus	-10.8911
▁transatlantic	-10.8912
穆巴拉克	-10.8912
▁impressive	-10.8912
▁extraordinary	-10.8912
▁awareness	-10.8913
标志着	-10.8913
等于	-10.8914
▁sex	-10.8915
的潜在	-10.8915
对策	-10.8919
总量	-10.8919
▁平心而论	-10.8923
到目前为止	-10.8923
▁adding	-10.8925
▁dominant	-10.8925
走上	-10.8929
力度	-10.8934
房屋	-10.8937
城市化	-10.8937
欧	-10.8939
dy	-10.8947
纳粹	-10.8947
▁一旦	-10.8949
▁trip	-10.8949
的实际	-10.895
站在	-10.895
world	-10.8951
american	-10.8953
中国和印度	-10.8957
▁ruled	-10.8962
三大	-10.8963
单位	-10.8963
发起	-10.8965
▁这也是	-10.8973
▁arguments	-10.8975
的选举	-10.8976
90%	-10.8976
▁king	-10.898
不如	-10.8988
优	-10.8989
75	-10.8993
的条件	-10.8993
▁selling	-10.8998
▁island	-10.9002
▁discuss	-10.9005
▁bolster	-10.9006
▁remember	-10.9008
不知道	-10.9009
的信号	-10.901
绝不是	-10.901
困扰	-10.9013
单一市场	-10.9015
的不同	-10.9015
▁controlled	-10.9016
▁involve	-10.9016
placed	-10.9017
透明	-10.9018
成为一个	-10.9018
贸易赤字	-10.9018
游戏	-10.9023
沉	-10.9023
都需要	-10.9023
▁keynes	-10.9023
申请	-10.9024
萎靡	-10.9024
▁mubarak	-10.9024
▁sexual	-10.9024
圈	-10.9024
模糊	-10.9024
玛	-10.9024
支柱	-10.9024
▁equipment	-10.9024
自愿	-10.9025
▁rebalancing	-10.9025
▁transportation	-10.9025
道理	-10.9025
▁complicated	-10.9026
▁recover	-10.9026
▁civilian	-10.9027
极大地	-10.9031
的讨论	-10.9032
仍将	-10.9034
极大的	-10.9034
描述	-10.9034
▁prize	-10.9035
▁dark	-10.9035
易	-10.904
ep	-10.9041
▁urgently	-10.9042
双方都	-10.9042
mon	-10.9044
准	-10.9045
套	-10.9049
▁foreigners	-10.9052
掌权	-10.9055
▁我们需要	-10.9055
▁enforcement	-10.9056
▁demanding	-10.9056
卖	-10.9064
▁keynesian	-10.9064
预计将	-10.907
▁invested	-10.9074
一部分	-10.9074
危机中	-10.9074
重要性	-10.9085
不那么	-10.9085
公共债务	-10.9092
冷	-10.9094
▁pressing	-10.9095
的环境	-10.9096
▁cells	-10.9096
移动	-10.9107
▁poses	-10.9121
▁da	-10.9121
年底	-10.9121
的损失	-10.9124
监管机构	-10.9126
谈	-10.9126
这是一个	-10.9126
▁argues	-10.9127
供	-10.9128
目	-10.9133
▁l	-10.9133
希	-10.9136
船	-10.9136
封	-10.9137
阿拉伯之春	-10.9137
▁compound	-10.9137
▁contributing	-10.9137
▁dilemma	-10.9137
▁madrid	-10.9137
▁manner	-10.9137
▁phenomenon	-10.9137
倡议	-10.9138
▁minorities	-10.9138
▁felt	-10.9138
例外	-10.9138
▁compensation	-10.9138
免疫	-10.9138
药品	-10.9138
▁reliable	-10.9138
介入	-10.9139
罗马	-10.9139
▁image	-10.9139
▁assumption	-10.914
的支持者	-10.914
▁expenditure	-10.914
▁favorable	-10.9141
这一目标	-10.9143
▁egyptian	-10.9147
会对	-10.9151
商品和服务	-10.9153
财产	-10.9154
一天	-10.9158
▁assad	-10.9161
▁feature	-10.9167
▁pboc	-10.918
down	-10.918
▁date	-10.918
currency	-10.9182
▁ones	-10.9187
▁adopting	-10.919
▁exporters	-10.9191
ible	-10.9191
所提出的	-10.9193
▁connected	-10.9194
几乎所有	-10.9199
有机会	-10.9202
必然	-10.9206
可怕的	-10.9222
劳	-10.9222
注意	-10.9223
速	-10.9227
的人们	-10.9231
性和	-10.9233
▁halt	-10.9236
拖累	-10.9237
定价	-10.9239
▁notion	-10.924
▁subsequent	-10.9241
da	-10.9242
▁proper	-10.9243
ping	-10.9243
贸易伙伴	-10.9247
一带一路	-10.9249
阿萨德	-10.925
▁15%	-10.925
室	-10.925
标	-10.9251
导弹	-10.9252
阿尔及利亚	-10.9252
弥补	-10.9252
马来西亚	-10.9252
3,000	-10.9252
▁ourselves	-10.9252
▁threshold	-10.9252
干旱	-10.9252
格鲁吉亚	-10.9252
抵御	-10.9252
中央政府	-10.9252
干扰	-10.9253
▁hungary	-10.9253
▁automation	-10.9253
运输	-10.9253
免费	-10.9253
建造	-10.9253
偏见	-10.9253
▁ease	-10.9253
700	-10.9253
所有这些	-10.9255
▁river	-10.9256
可能在	-10.9256
▁pure	-10.9258
长期利率	-10.9259
▁consistently	-10.9266
▁removed	-10.9269
▁insufficient	-10.927
▁weakened	-10.9272
保守派	-10.9272
▁dominance	-10.9273
▁em	-10.9276
▁rulers	-10.9276
ev	-10.9277
是通过	-10.928
▁aware	-10.9286
ence	-10.9294
growing	-10.93
▁kinds	-10.9301
在非洲	-10.9306
置	-10.9307
蒂	-10.9309
的意愿	-10.9315
行为的	-10.932
▁reject	-10.9321
ating	-10.9323
机遇	-10.9323
统治者	-10.9327
▁proven	-10.933
没人	-10.9331
▁这就是	-10.9333
▁ni	-10.9334
▁contract	-10.9338
fold	-10.9339
太多	-10.9343
普及	-10.9345
▁这将	-10.9346
den	-10.9348
角度	-10.935
政策和	-10.9351
使命	-10.9351
投资和	-10.9355
永久	-10.9355
综合	-10.9357
富裕	-10.9357
低估	-10.9361
来讲	-10.9362
名义	-10.9364
消极	-10.9366
▁demonstrate	-10.9367
▁tibet	-10.9368
德国的	-10.9368
纠纷	-10.9368
苏丹	-10.9368
欠	-10.9369
细胞	-10.9369
▁backlash	-10.9369
▁protocol	-10.9369
▁remote	-10.9369
继承	-10.9369
▁closing	-10.9369
文件	-10.9369
势头	-10.937
参议员	-10.937
pro	-10.9371
▁realistic	-10.9372
▁characterized	-10.9372
▁nowhere	-10.9372
著名	-10.9372
▁modernization	-10.9372
▁slightly	-10.9373
群	-10.9373
修复	-10.9373
▁helps	-10.9374
▁surpluses	-10.9376
▁missing	-10.9387
铁	-10.9387
▁impos	-10.9387
望	-10.9394
互动	-10.9396
以及对	-10.9397
的传统	-10.9406
的程度	-10.9406
处在	-10.9407
▁successor	-10.9408
▁chain	-10.9408
▁mitigate	-10.9417
adjusted	-10.9418
前任	-10.9419
军事行动	-10.942
签订	-10.9424
▁remind	-10.9425
初	-10.9427
▁badly	-10.9427
多样化	-10.9428
gan	-10.943
两位	-10.9431
系统性	-10.9433
境	-10.9435
乐	-10.9436
农场	-10.9437
lin	-10.9437
▁earn	-10.9438
更容易	-10.944
的想法	-10.9443
▁projected	-10.9444
这条	-10.9448
▁types	-10.945
理事会	-10.9455
▁discussions	-10.9457
似乎是	-10.9457
▁heat	-10.9458
▁requir	-10.9461
召开	-10.9467
▁4%	-10.9468
▁prevented	-10.9469
南欧	-10.9469
▁arrest	-10.9469
社交媒体	-10.947
国际法	-10.9471
提供资金	-10.9473
▁accurate	-10.9475
弱势	-10.9476
评论	-10.9481
经济和社会	-10.9483
沙	-10.9484
悲观	-10.9485
邓小平	-10.9486
飓风	-10.9486
▁delhi	-10.9486
▁english	-10.9486
▁mediterranean	-10.9486
▁picture	-10.9486
太平洋	-10.9486
采购	-10.9486
▁brain	-10.9486
营养	-10.9486
▁announcement	-10.9487
▁hunger	-10.9487
紧张局势	-10.9487
西欧	-10.9487
▁identified	-10.9488
持久	-10.9488
争夺	-10.9488
▁deng	-10.9488
反思	-10.9488
就需要	-10.9489
另	-10.9489
▁machine	-10.9492
▁foundations	-10.9497
言论自由	-10.9498
▁dangers	-10.9498
全面的	-10.9502
▁巴黎	-10.9502
▁undermined	-10.9504
ster	-10.9506
最大化	-10.9508
▁financed	-10.951
看法	-10.9514
进行的	-10.9514
破坏了	-10.9514
缓和	-10.9515
仍有	-10.9519
▁patient	-10.9521
告诉我们	-10.9527
关心	-10.9531
▁moves	-10.9534
▁enforce	-10.9538
?"	-10.9542
传统的	-10.9543
银行系统	-10.9544
per	-10.9547
▁considering	-10.9548
在亚洲	-10.9548
在国内	-10.9551
以此	-10.9551
被称为	-10.9552
▁无论如何	-10.9553
cy	-10.9553
▁7%	-10.9556
▁homes	-10.9559
此后	-10.9565
su	-10.9566
都可以	-10.9567
可以从	-10.9567
之一是	-10.957
的机构	-10.957
张	-10.9572
修正	-10.9574
▁brings	-10.9577
行长	-10.958
的预期	-10.9584
▁robert	-10.9584
反过来	-10.9584
消	-10.9585
都无法	-10.9585
▁这样	-10.9586
是正确的	-10.9591
政治制度	-10.9592
▁cuba	-10.9596
政策制定者	-10.9596
▁mobilize	-10.9597
甚	-10.9597
▁prepare	-10.9597
配	-10.96
物价	-10.9601
专制	-10.9602
错误的	-10.9602
政变	-10.9602
mp	-10.9603
多大	-10.9604
怎么	-10.9604
共和国	-10.9605
终结	-10.9605
狂热	-10.9605
仇恨	-10.9605
▁ministry	-10.9605
课程	-10.9605
▁blind	-10.9605
▁neighborhood	-10.9605
挽救	-10.9606
撤军	-10.9606
识别	-10.9606
所赐	-10.9606
▁harsh	-10.9606
一方面	-10.961
▁catastrophe	-10.9611
▁accused	-10.9612
▁internationally	-10.9613
ren	-10.9615
的进步	-10.9616
ya	-10.9617
它将	-10.9619
150	-10.962
的任何	-10.9621
▁anger	-10.9623
压	-10.9625
▁director	-10.9631
▁用	-10.9632
让步	-10.9633
完善	-10.9636
全球金融危机	-10.9642
是对	-10.9644
▁inside	-10.9646
的一半	-10.9648
je	-10.9652
失败的	-10.9654
energy	-10.9662
▁ben	-10.9662
智能	-10.9662
适用于	-10.9662
再度	-10.9663
数十年	-10.9669
年代末	-10.967
ze	-10.967
▁reductions	-10.9675
▁belt	-10.9676
途径	-10.9676
灵活	-10.9681
举	-10.9683
的货币	-10.9686
▁methods	-10.9686
▁fa	-10.9687
▁partnerships	-10.9692
权力的	-10.9694
私	-10.9696
serving	-10.9698
形象	-10.9701
提到	-10.9701
遭到了	-10.9702
成熟	-10.9714
va	-10.9715
的制度	-10.9715
养	-10.9719
▁overwhelming	-10.972
来到	-10.9721
▁evolution	-10.9725
活跃	-10.9726
仔细	-10.9726
▁beneficial	-10.9726
▁malaysia	-10.9726
▁numerous	-10.9726
▁vulnerability	-10.9726
薪酬	-10.9726
缩减	-10.9726
指引	-10.9726
保罗	-10.9726
黄金	-10.9726
减弱	-10.9726
交换	-10.9726
压制	-10.9726
▁winning	-10.9727
▁2000,	-10.9727
▁albe	-10.9728
日元	-10.9728
保守	-10.9728
迈向	-10.9728
之势	-10.9729
为基础	-10.973
▁distress	-10.9733
ef	-10.9737
ative	-10.9739
▁driver	-10.974
▁1991	-10.9741
好像	-10.9742
▁refused	-10.9743
▁forest	-10.9745
like	-10.9748
▁abandoned	-10.9751
▁missile	-10.9752
特点	-10.9752
极有可能	-10.9756
▁organized	-10.9758
的利率	-10.9758
▁fe	-10.9758
发展中国家的	-10.9759
▁materials	-10.9759
和欧洲	-10.9761
弱点	-10.9767
接受了	-10.9772
其中的	-10.9772
▁inefficient	-10.9772
tu	-10.978
基金会	-10.9782
控制的	-10.9785
▁doctors	-10.9786
▁的确	-10.9789
▁comprise	-10.9791
high	-10.9792
▁由	-10.9794
无法获得	-10.98
▁map	-10.9801
难题	-10.9802
自信	-10.9803
何	-10.9805
全球贸易	-10.9807
引擎	-10.9811
▁像	-10.9815
厂	-10.9816
企业的	-10.9818
的经济体	-10.9818
▁translate	-10.9819
铁路	-10.9819
大概	-10.982
▁gaining	-10.9822
是如何	-10.9822
巨	-10.9825
一代	-10.9826
que	-10.9833
危机后	-10.9834
keeping	-10.9834
两者	-10.9837
程	-10.9841
排除	-10.9841
包	-10.9842
最新的	-10.9843
迷	-10.9846
▁ultimate	-10.9847
minded	-10.9847
父母	-10.9847
巨头	-10.9848
▁background	-10.9848
▁facilities	-10.9848
▁gross	-10.9848
▁liabilities	-10.9848
▁steady	-10.9848
10,000	-10.9848
非政府组织	-10.9848
▁gates	-10.9848
议题	-10.9848
抵抗	-10.9848
▁dropped	-10.9848
恐怖袭击	-10.9849
▁brand	-10.9849
前沿	-10.9851
极其	-10.9854
▁tradition	-10.9854
价值的	-10.9856
这场危机	-10.9858
▁bailout	-10.9859
美元的	-10.9862
▁replaced	-10.9862
连接	-10.9865
▁surprisingly	-10.9866
有什么	-10.9867
▁pricing	-10.9879
1.5	-10.988
欧洲一体化	-10.9881
▁web	-10.9883
▁大部分	-10.9884
年到	-10.9884
▁perception	-10.9887
新一轮	-10.9888
届	-10.9889
over	-10.9896
创	-10.99
社会的	-10.9901
印度的	-10.992
清洁	-10.9922
ron	-10.9926
▁openly	-10.9926
可持续的	-10.9929
充	-10.9929
听到	-10.9932
▁attitudes	-10.9932
是中国	-10.9933
▁seeks	-10.9934
的表现	-10.9935
▁backed	-10.9938
▁presidents	-10.9938
上海	-10.9941
基本上	-10.9944
年内	-10.9946
▁stocks	-10.9955
废除	-10.9956
借款	-10.9957
多种	-10.9958
▁acute	-10.996
▁torture	-10.9963
球	-10.9963
他们对	-10.9964
kin	-10.9965
下降了	-10.9965
▁persuade	-10.9965
▁但如今	-10.9965
的比重	-10.9966
办	-10.9969
只占	-10.9969
伯	-10.997
固定	-10.9971
自由市场	-10.9971
▁solid	-10.9971
审慎	-10.9971
▁liberty	-10.9971
▁nevertheless	-10.9971
▁pursuit	-10.9971
搞	-10.9971
帕	-10.9971
坚决	-10.9971
▁compelling	-10.9971
诉讼	-10.9971
医疗保健	-10.9972
▁unconventional	-10.9972
电脑	-10.9972
事故	-10.9972
▁treaties	-10.9972
征税	-10.9972
温度	-10.9972
洪水	-10.9972
另外	-10.9973
无视	-10.9974
▁prolonged	-10.9976
达成一致	-10.9977
▁arise	-10.9979
▁experiment	-10.9979
▁sdr	-10.9981
▁statements	-10.9981
最高的	-10.9982
在政治上	-10.9982
▁component	-10.9983
▁scarce	-10.9984
却在	-10.9987
▁gets	-10.999
不再是	-10.999
▁deepening	-10.9994
▁planned	-10.9995
▁ran	-10.9997
契约	-11
与欧盟	-11.0003
▁palestine	-11.0005
▁toxic	-11.0006
其中包括	-11.0006
▁word	-11.0014
确认	-11.0014
ide	-11.0015
▁appeared	-11.0021
二十世纪	-11.0021
看看	-11.0021
银行业	-11.0024
将让	-11.0025
配置	-11.0025
服	-11.0026
非正式	-11.0027
way	-11.0027
▁recall	-11.0033
财政刺激	-11.0033
绝大部分	-11.0033
government	-11.0034
▁slowed	-11.0038
认真	-11.0041
能够在	-11.0043
▁500	-11.0044
ka	-11.0047
决	-11.0047
它是	-11.0048
王	-11.0049
能量	-11.005
很重要	-11.0051
▁obstacles	-11.0051
较低	-11.0052
他们所	-11.0054
这也是	-11.0066
和环境	-11.0067
▁insist	-11.0069
22	-11.0069
奥巴马总统	-11.0069
26	-11.0072
前总统	-11.0073
邦	-11.0077
而这些	-11.0078
▁forecast	-11.008
轻	-11.008
目标是	-11.0081
质	-11.0084
打造	-11.0085
▁original	-11.0087
的公共	-11.0087
的资产	-11.0087
▁在过去	-11.0089
进化	-11.009
在没有	-11.0091
的总	-11.0091
北欧	-11.0092
stood	-11.0093
苦	-11.0093
收集	-11.0093
但我们	-11.0095
适用	-11.0095
爆炸	-11.0095
▁1979	-11.0095
肉	-11.0096
遵循	-11.0096
▁surveillance	-11.0096
▁minimize	-11.0096
▁regain	-11.0096
▁convergence	-11.0096
勇气	-11.0096
▁facts	-11.0097
基地组织	-11.0097
堪称	-11.0098
▁greatly	-11.0098
昂贵	-11.01
▁understandable	-11.0102
路径	-11.0103
可持续发展目标	-11.0104
▁不管是	-11.0104
▁engine	-11.0105
出版	-11.0108
▁province	-11.011
▁discrimination	-11.0112
的因素	-11.0113
二战后	-11.0115
▁socialist	-11.0117
的争论	-11.0117
持续的	-11.012
▁passed	-11.012
的标准	-11.0122
毫不	-11.0123
南方	-11.0124
▁colleagues	-11.0124
▁有	-11.0129
至少在	-11.0129
▁historically	-11.0129
▁lacks	-11.0129
▁1998	-11.0131
▁guard	-11.0133
我们对	-11.0133
denominated	-11.0137
盟国	-11.0138
种植	-11.0141
▁activists	-11.0141
▁check	-11.0152
上台	-11.0152
因而	-11.0152
economic	-11.0165
在欧盟	-11.0165
诸如	-11.0171
是否能	-11.0171
间的	-11.0174
par	-11.0174
well	-11.0175
▁assess	-11.0176
▁train	-11.0177
跨	-11.0183
▁fails	-11.0189
▁fine	-11.0189
▁africans	-11.0191
▁debates	-11.0191
就业和	-11.0193
改革的	-11.02
▁dam	-11.0205
▁puts	-11.0207
季度	-11.021
▁disorder	-11.0211
▁settle	-11.0214
▁machines	-11.0216
修	-11.0216
待	-11.0217
户	-11.0218
赛	-11.0219
废	-11.0219
偿付	-11.0222
衣	-11.0222
运营	-11.0222
争端	-11.0223
木	-11.0223
漏洞	-11.0223
▁comparison	-11.0223
▁bureaucracy	-11.0223
▁denmark	-11.0223
钢铁	-11.0223
细节	-11.0223
▁至于	-11.0223
消息	-11.0223
▁resolving	-11.0223
流程	-11.0224
国企	-11.0224
▁dynamics	-11.0225
联合国安理会	-11.0225
▁brazilian	-11.0226
▁contraction	-11.0226
▁underway	-11.0226
就业岗位	-11.0227
股权	-11.0228
何时	-11.0229
▁drawn	-11.0229
趋同	-11.0234
联邦政府	-11.0236
▁negotiated	-11.0237
对象	-11.0237
▁mounting	-11.024
▁kill	-11.0241
注重	-11.0243
▁avoiding	-11.0252
激发	-11.0253
▁deposit	-11.0254
全球性	-11.0254
时任	-11.0257
hi	-11.026
研究表明	-11.0261
例	-11.0261
的失败	-11.0264
免受	-11.0265
的城市	-11.0268
▁targeting	-11.0269
ms	-11.0269
推出	-11.027
和中国	-11.028
这一观点	-11.028
▁cooperate	-11.0282
急需	-11.0287
▁wins	-11.029
▁applications	-11.029
的预测	-11.029
▁lenders	-11.029
善	-11.0293
大力	-11.0294
伊拉克战争	-11.0295
反映出	-11.0297
▁bi	-11.0298
的监管	-11.0313
发布的	-11.0315
足球	-11.0318
▁avoided	-11.0318
关联	-11.0321
我们应该	-11.0322
防务	-11.0323
的规则	-11.0324
环境中	-11.0325
的目的	-11.0336
的贸易	-11.0341
▁他的	-11.0342
切实	-11.0342
▁rescue	-11.0343
▁careful	-11.0343
的教训	-11.0344
肯定会	-11.0346
盛	-11.0347
红	-11.0349
主导的	-11.0349
试	-11.0349
购	-11.035
脚	-11.035
投机	-11.035
贵	-11.0351
▁proceed	-11.0351
frank	-11.0351
▁pharmaceutical	-11.0351
诞生	-11.0351
强迫	-11.0351
软件	-11.0351
之际	-11.0351
▁comparable	-11.0351
内阁	-11.0351
逃离	-11.0351
测量	-11.0352
赞成	-11.0352
▁wellbeing	-11.0353
▁approved	-11.0354
▁protectionism	-11.0354
残酷	-11.0357
提议	-11.0357
▁dictatorship	-11.0357
前往	-11.0358
▁reinforced	-11.0359
▁openness	-11.036
健康的	-11.036
▁estimate	-11.0361
▁exposure	-11.0362
▁sooner	-11.0366
▁crowd	-11.0367
▁familiar	-11.0372
非洲大陆	-11.0373
身体	-11.0379
此举	-11.038
更广泛的	-11.038
完	-11.0381
▁所有	-11.0383
的欧盟	-11.0383
哥本哈根	-11.0389
参议院	-11.0392
终	-11.0395
鼓吹	-11.0395
ki	-11.0397
对外	-11.0399
back	-11.0407
显然是	-11.041
明显的	-11.041
的亚洲	-11.0412
的办法	-11.0413
属	-11.0413
今年的	-11.0414
杀	-11.0416
保	-11.0421
1,000	-11.0424
sheet	-11.0425
的时间里	-11.0426
au	-11.0427
such	-11.0427
好的	-11.0428
就越	-11.0428
1970	-11.0428
▁亚洲	-11.0429
的方式来	-11.0432
▁son	-11.0436
▁bail	-11.044
学院	-11.0441
有点	-11.0441
敌人	-11.0443
▁bio	-11.0446
▁lend	-11.0449
容忍	-11.045
▁uses	-11.045
获	-11.0453
row	-11.0455
理论上	-11.0458
供应链	-11.0459
女孩	-11.0461
lt	-11.0461
pp	-11.0463
更快	-11.0465
发展的	-11.0467
是时候	-11.0469
独立性	-11.047
▁tech	-11.047
▁tunisia	-11.0471
世俗	-11.0471
招	-11.048
翻	-11.048
▁jordan	-11.048
材料	-11.0481
亚投行	-11.0481
监狱	-11.0481
▁davos	-11.0481
▁doctrine	-11.0481
考察	-11.0481
▁overseas	-11.0481
产能过剩	-11.0481
统一的	-11.0481
预言	-11.0481
▁frontier	-11.0481
▁knew	-11.0482
▁concentration	-11.0482
涌入	-11.0482
高管	-11.0483
▁sdgs	-11.0484
突出	-11.0485
体验	-11.0485
▁chances	-11.0486
再一次	-11.0487
无数	-11.0492
已经被	-11.0492
▁invasion	-11.0495
起到了	-11.0495
的原则	-11.0497
这么做	-11.0499
▁georgia	-11.05
等国家	-11.05
▁disruption	-11.0501
▁pose	-11.0502
▁eye	-11.0504
圣	-11.0505
▁donor	-11.0506
其对	-11.0509
出资	-11.051
欧盟领导人	-11.051
是一项	-11.0511
不论	-11.0511
▁written	-11.0511
▁weapon	-11.052
与此同时	-11.0521
货币贬值	-11.0522
加入欧盟	-11.0525
▁entered	-11.0526
低成本	-11.0528
今后	-11.0534
▁confronting	-11.0534
ight	-11.0538
▁除	-11.054
前者	-11.0546
▁marine	-11.0547
这一比例	-11.0548
作者	-11.0552
中获益	-11.0554
资格	-11.0556
明智的	-11.0558
made	-11.0563
▁sites	-11.0566
金融服务	-11.0567
范围内	-11.0567
在英国	-11.0568
相似	-11.0568
65	-11.0573
du	-11.0574
▁count	-11.0577
大规模的	-11.0578
end	-11.0579
随之	-11.0582
han	-11.0583
▁streets	-11.0584
▁collect	-11.0585
▁mistakes	-11.0587
▁pan	-11.0592
▁confirm	-11.0595
制定了	-11.0598
▁indicate	-11.0599
选票	-11.06
▁desperate	-11.0601
▁constant	-11.0601
阶级	-11.0603
疗法	-11.0604
▁fifth	-11.0604
▁flood	-11.0604
国家利益	-11.0605
做法	-11.0605
和其他国家	-11.0606
▁经济学家	-11.0607
链	-11.0609
▁object	-11.061
顿	-11.0611
很有	-11.0611
必将	-11.0611
▁operation	-11.0611
牛	-11.0612
▁birth	-11.0612
云	-11.0612
权衡	-11.0613
▁patent	-11.0613
▁principal	-11.0613
▁audience	-11.0613
▁juncker	-11.0613
▁novel	-11.0613
▁parallel	-11.0613
▁prominent	-11.0613
▁trajectory	-11.0613
福祉	-11.0613
毛泽东	-11.0613
尊严	-11.0613
特别提款权	-11.0613
编	-11.0613
通讯	-11.0613
▁draghi	-11.0613
▁sentence	-11.0613
务实	-11.0613
相结合	-11.0613
▁norway	-11.0613
国家安全	-11.0613
奇怪	-11.0614
▁charter	-11.0615
的健康	-11.0616
董事会	-11.0616
演变为	-11.0618
网站	-11.0618
▁cheaper	-11.0619
强国	-11.0619
▁introduce	-11.0621
竞争对手	-11.0621
gen	-11.0621
履行	-11.0624
▁granted	-11.0626
▁communism	-11.0626
▁就连	-11.0627
冲突的	-11.0627
▁24	-11.0628
可信	-11.063
ell	-11.0631
▁transformed	-11.0635
▁ceiling	-11.0636
的过程	-11.0641
不安	-11.0642
的数量	-11.0645
中所	-11.0647
▁falls	-11.0651
▁sensitive	-11.0651
▁gaps	-11.0655
▁famous	-11.0659
▁marginal	-11.0659
▁presented	-11.0659
对伊朗	-11.0664
所有权	-11.0666
▁sun	-11.0668
也包括	-11.0669
▁skilled	-11.0671
俄罗斯的	-11.0672
sh	-11.0677
临时	-11.0685
下一个	-11.0686
的优势	-11.0687
的自由	-11.0688
柏林	-11.0693
▁ki	-11.0704
▁testing	-11.0705
致命	-11.0705
可以让	-11.0707
偏好	-11.0708
温室气体排放	-11.0709
流离失所	-11.0713
▁considerations	-11.0714
一些人	-11.0715
和安全	-11.0717
70%	-11.0717
均衡	-11.0718
信念	-11.0727
脆弱的	-11.0729
百万	-11.073
和金融	-11.073
her	-11.0733
生活的	-11.0733
共和党人	-11.0734
placing	-11.0734
偏	-11.0734
▁noted	-11.0735
患	-11.0735
带着	-11.0737
这么	-11.0738
特朗普政府	-11.0743
29	-11.0743
习惯	-11.0744
▁prior	-11.0745
▁turns	-11.0745
是一场	-11.0745
▁autonomy	-11.0746
▁legislative	-11.0746
▁scotland	-11.0746
▁supervision	-11.0746
归咎于	-11.0746
▁generous	-11.0746
雇主	-11.0746
辞职	-11.0746
母亲	-11.0746
索马里	-11.0746
升息	-11.0746
作物	-11.0747
▁anywhere	-11.0748
知识产权	-11.0748
多元化	-11.0748
三倍	-11.0749
不利于	-11.075
强力	-11.075
▁concentrated	-11.0753
远比	-11.0755
▁enacted	-11.0757
高出	-11.0757
▁myth	-11.0757
▁approval	-11.0757
▁fresh	-11.076
施	-11.076
穷	-11.0763
▁resilient	-11.0765
▁marked	-11.0767
▁temperature	-11.0769
残	-11.0773
ending	-11.0773
顶	-11.0775
▁imperial	-11.0777
自由的	-11.0779
意愿	-11.0781
▁procedures	-11.0788
具	-11.0789
▁binding	-11.0789
激	-11.0792
阿拉伯世界	-11.0793
有权	-11.0793
增加到	-11.0796
充满了	-11.0797
▁worrying	-11.0801
的依赖	-11.0805
如果没有	-11.0805
▁joining	-11.0808
的创新	-11.081
▁judges	-11.0817
最低	-11.0818
比重	-11.0821
ca	-11.0821
▁但他们	-11.0823
▁shortages	-11.0828
with	-11.0831
▁love	-11.0831
productive	-11.0832
building	-11.0834
宏观	-11.0836
▁cyclical	-11.0837
ture	-11.0837
makers	-11.0839
ier	-11.0848
批评者	-11.085
的激励	-11.0855
近年来	-11.0856
三年	-11.0857
▁intention	-11.0862
在国际	-11.0864
忧虑	-11.0866
34	-11.0868
游	-11.0869
各成员国	-11.087
变得更	-11.0871
扩散	-11.0874
▁或许	-11.0874
校	-11.0877
备	-11.0878
债务危机	-11.0879
顺	-11.0879
律师	-11.088
▁electric	-11.088
津巴布韦	-11.0881
▁eliminating	-11.0881
▁tokyo	-11.0881
详细	-11.0881
什叶派	-11.0881
判决	-11.0881
东京	-11.0881
教师	-11.0881
报纸	-11.0881
▁master	-11.0881
征收	-11.0882
▁integrity	-11.0882
▁unfair	-11.0882
写道	-11.0882
▁disasters	-11.0884
▁meat	-11.0884
合作伙伴	-11.0884
▁involving	-11.0886
的资本	-11.0887
▁catastrophic	-11.0887
▁accountable	-11.0889
dustrialization	-11.089
▁reversed	-11.0893
灵活性	-11.0895
▁adjustments	-11.0896
▁confident	-11.0898
的另一个	-11.0898
▁epidemic	-11.0904
▁rival	-11.0904
▁hospital	-11.0905
的贡献	-11.0906
边缘	-11.091
的转型	-11.0911
▁reap	-11.0912
资本流	-11.0913
▁male	-11.0918
分布	-11.0918
▁dioxide	-11.0918
ph	-11.0919
首都	-11.0921
民族国家	-11.0922
▁rightly	-11.0924
解除	-11.0924
足	-11.0925
尤其是在	-11.0926
难民危机	-11.0926
证实	-11.0928
▁findings	-11.0932
中国对	-11.0934
▁landing	-11.0935
▁bid	-11.0938
size	-11.0939
想法	-11.094
北方	-11.094
▁cope	-11.0954
应该在	-11.0957
的项目	-11.0957
收益率	-11.0957
与伊朗	-11.0967
欧元区的	-11.0968
hold	-11.0968
以往	-11.097
功	-11.097
inflation	-11.097
▁advocates	-11.0972
鉴于	-11.0972
会有	-11.0972
强有力的	-11.0976
sis	-11.098
▁seats	-11.0982
▁absolute	-11.0986
周期性	-11.0987
也同样	-11.0989
上升到	-11.0997
该国的	-11.1
▁restor	-11.1002
东南亚	-11.1004
碳排放	-11.1006
▁strict	-11.1006
▁sudden	-11.1007
之间的关系	-11.1007
按揭	-11.1009
▁forests	-11.1009
▁所有这些都	-11.1011
年初	-11.1011
哪	-11.1012
▁seize	-11.1014
人均收入	-11.1014
友	-11.1016
威慑	-11.1017
煤	-11.1017
50,000	-11.1017
鱼	-11.1018
环保	-11.1018
决议	-11.1018
筛查	-11.1018
竭尽全力	-11.1018
别无选择	-11.1018
▁ancient	-11.1018
▁anxiety	-11.1018
▁basket	-11.1018
▁hezbollah	-11.1018
▁incumbent	-11.1018
▁influential	-11.1018
▁premier	-11.1018
▁silk	-11.1018
涵盖	-11.1018
压迫	-11.1018
拖延	-11.1018
修订	-11.1018
▁mortality	-11.1018
厌恶	-11.1018
▁retirement	-11.1018
待遇	-11.1018
救助	-11.1018
设置	-11.1018
▁existence	-11.1018
versus	-11.1018
▁fellow	-11.1019
▁allocation	-11.1019
历	-11.1019
专利	-11.1019
人力资本	-11.1019
▁6%	-11.1019
游说	-11.102
▁adoption	-11.1021
里根	-11.1021
▁motivated	-11.1022
的选民	-11.1022
▁repeated	-11.1023
所能	-11.1024
和平进程	-11.1027
▁behave	-11.1027
高企	-11.1028
▁declare	-11.1029
得出	-11.1031
▁poll	-11.1031
▁competing	-11.1032
▁taxation	-11.1033
风暴	-11.1035
间接	-11.1035
▁enhanced	-11.1043
▁outbreak	-11.1044
两党	-11.1046
▁except	-11.1049
公共服务	-11.1049
否定	-11.105
中获得	-11.1051
的个人	-11.1052
反复	-11.1053
基本面	-11.1053
的产品	-11.1054
现在的	-11.1056
之比	-11.1057
他们将	-11.1062
采取措施	-11.1066
▁reporting	-11.1069
▁succeeded	-11.1069
税收收入	-11.1071
▁deserve	-11.1072
债务重组	-11.1074
act	-11.1075
▁cure	-11.1079
贸易战	-11.1081
▁[	-11.1085
被用于	-11.1086
输	-11.1086
和政府	-11.109
▁第二	-11.1091
▁ru	-11.1094
经济改革	-11.1094
严峻	-11.1095
ict	-11.1103
慢	-11.1105
助长	-11.1106
▁这就	-11.1109
该地区的	-11.111
很快就	-11.1111
1989	-11.1111
▁responding	-11.1111
general	-11.1111
▁protected	-11.1112
extended	-11.1114
中东地区	-11.1117
可以用	-11.1119
暴露	-11.1119
银行和	-11.1124
金融系统	-11.1124
的局面	-11.1125
的民众	-11.1129
南海	-11.113
即使在	-11.113
ib	-11.113
就在	-11.1134
和俄罗斯	-11.1134
痛苦的	-11.1135
一道	-11.1137
▁feeling	-11.1138
多个	-11.1138
思	-11.1138
▁repeat	-11.114
▁toll	-11.1143
现在已经	-11.1146
ified	-11.1147
▁intervene	-11.1148
digit	-11.1149
互	-11.1153
▁fields	-11.1155
雨	-11.1157
伯南克	-11.1157
佩	-11.1157
逊尼派	-11.1157
▁altogether	-11.1157
▁bodies	-11.1157
▁definition	-11.1157
▁ideology	-11.1157
▁implicit	-11.1157
▁jews	-11.1157
▁moscow	-11.1157
收紧	-11.1157
辩护	-11.1157
谈论	-11.1157
会被	-11.1158
数百	-11.1158
▁grounds	-11.1159
明智	-11.1159
引用	-11.116
▁difficulties	-11.1162
特权	-11.1163
▁upward	-11.1165
的需要	-11.1166
政治和	-11.1167
▁disrupt	-11.1168
义	-11.1171
▁roads	-11.1171
危机前	-11.1171
▁resolved	-11.1176
白人	-11.1179
▁2015.	-11.118
面积	-11.1185
▁channel	-11.1185
▁aiib	-11.1185
▁saved	-11.1188
这笔	-11.1189
低碳	-11.1193
以外	-11.1196
▁conservatives	-11.1199
▁books	-11.12
▁exists	-11.12
德国人	-11.1201
管理者	-11.1202
集	-11.1206
助长了	-11.1209
▁amid	-11.1211
▁exceptional	-11.1212
▁enterprise	-11.1216
让它们	-11.122
严格的	-11.1223
▁talking	-11.1223
的协议	-11.1226
▁在中国	-11.1226
块	-11.1228
▁naturally	-11.1228
政治联盟	-11.1229
med	-11.1229
零售	-11.123
use	-11.1235
▁ratings	-11.1237
")	-11.1238
只需要	-11.1244
▁employ	-11.1246
年开始	-11.1248
政治领导人	-11.125
更低	-11.1254
largest	-11.1254
犹太	-11.1255
新型	-11.1255
更有可能	-11.1255
▁iraqi	-11.1256
▁crops	-11.1256
▁onto	-11.1261
sharing	-11.1265
47	-11.1266
和企业	-11.1271
的合法性	-11.1273
▁就	-11.1277
hen	-11.1278
只不过是	-11.128
▁接着	-11.1281
上了	-11.1281
侵略	-11.1283
老龄化	-11.1283
▁北京	-11.1284
▁regular	-11.1286
法国总统	-11.1288
▁combine	-11.1289
▁finances	-11.1293
大会	-11.1293
软	-11.1293
示	-11.1296
贷	-11.1296
灵	-11.1297
盘	-11.1297
帮	-11.1297
国际贸易	-11.1297
大宗商品	-11.1297
峰会上	-11.1298
吧	-11.1298
莫斯科	-11.1298
毛	-11.1298
▁arguing	-11.1298
▁berlusconi	-11.1298
▁enlargement	-11.1298
▁extensive	-11.1298
▁pound	-11.1298
▁tragedy	-11.1298
▁zimbabwe	-11.1298
▁chaos	-11.1298
▁foremost	-11.1298
▁brotherhood	-11.1298
攀升	-11.1298
效仿	-11.1298
▁precedent	-11.1298
▁更糟糕的是	-11.1298
谋杀	-11.1298
▁residents	-11.1298
▁cooperative	-11.1298
务	-11.1298
报复	-11.1298
▁calm	-11.1298
雇用	-11.1299
▁involvement	-11.1299
海军	-11.13
演化	-11.13
地震	-11.1302
自由主义	-11.1303
人道主义	-11.1303
游行	-11.1304
新增	-11.1306
这一事实	-11.1308
▁ally	-11.1309
▁lowest	-11.1309
▁accelerating	-11.1315
▁troubled	-11.1316
▁当前	-11.1317
每一个	-11.1317
区分	-11.1317
▁richer	-11.1317
▁reinforce	-11.1319
▁ab	-11.1321
▁prevention	-11.1321
当今世界	-11.1326
▁namely	-11.1326
sha	-11.1328
▁expression	-11.1328
幕	-11.1329
将使	-11.1335
在某种程度上	-11.1335
的证据	-11.1336
our	-11.1338
▁volume	-11.1339
证明了	-11.1347
▁$4	-11.1347
部门的	-11.1347
一片	-11.1349
car	-11.1351
小型	-11.1353
▁tasks	-11.1354
▁21	-11.1362
▁telling	-11.1363
▁recorded	-11.1365
等国	-11.1366
也就	-11.1368
mu	-11.1371
▁$5	-11.1377
的转变	-11.1377
自由和	-11.1383
安全的	-11.1391
▁importantly	-11.1395
▁asking	-11.1397
facebook	-11.1399
change	-11.1399
brexit	-11.1399
▁而这	-11.1402
一个新的	-11.1405
▁divisions	-11.1405
的希望	-11.141
技术和	-11.141
but	-11.141
▁16	-11.1412
▁fix	-11.1413
迹象	-11.1419
不信任	-11.142
的和平	-11.142
象	-11.1421
军事力量	-11.1422
▁wen	-11.1422
演讲	-11.1422
▁obtain	-11.1423
可行	-11.143
▁convince	-11.1432
武力	-11.1433
阶层	-11.1434
的领域	-11.1434
依然是	-11.1434
▁austria	-11.1435
▁distinct	-11.1438
的出口	-11.1439
▁release	-11.144
田	-11.144
disproportionate	-11.1441
▁valley	-11.1441
▁administrative	-11.1441
▁dutch	-11.1441
▁livelihoods	-11.1441
▁marriage	-11.1441
▁spiral	-11.1441
▁monopoly	-11.1441
▁morsi	-11.1441
模仿	-11.1441
罗伯特	-11.1441
创立	-11.1441
对那些	-11.1441
左派	-11.1441
▁modi	-11.1441
年龄	-11.1441
电网	-11.1442
▁draft	-11.1442
▁remove	-11.1445
▁optimistic	-11.1445
▁emphasized	-11.1447
▁controversial	-11.145
选举中	-11.1451
会出现	-11.1451
▁inflationary	-11.1453
▁secondary	-11.1453
▁sacrifice	-11.1453
▁competitors	-11.1458
amp	-11.1461
▁jewish	-11.1461
在内	-11.1462
推高	-11.1466
▁sufficiently	-11.1471
▁article	-11.1472
▁admit	-11.1473
▁但它	-11.1474
有限的	-11.148
都被	-11.1482
▁对此	-11.1482
▁explained	-11.1483
军方	-11.1483
含	-11.1485
自主	-11.1488
的贷款	-11.149
▁topic	-11.1499
▁roll	-11.1507
之外的	-11.1508
▁27	-11.1508
▁traditionally	-11.1512
展示	-11.1512
关系的	-11.1513
dr	-11.1522
的现象	-11.1522
光是	-11.1525
设	-11.1525
促成	-11.1527
被认为	-11.1531
热情	-11.1531
那时	-11.1531
长期以来	-11.1535
cal	-11.1535
▁到目前为止	-11.1536
选择了	-11.1538
不可持续	-11.154
政府官员	-11.154
灾难性	-11.1543
有意义的	-11.1543
1998	-11.1546
行业的	-11.1548
▁lasting	-11.155
most	-11.1551
西方国家	-11.1553
▁interested	-11.1557
以使	-11.1558
出来的	-11.1558
▁bet	-11.1561
土	-11.1563
▁shifted	-11.1566
的结论	-11.1568
的手段	-11.157
但他	-11.1572
所做的	-11.1573
▁striking	-11.1574
▁1992	-11.1576
drawing	-11.1577
▁exacerbate	-11.1577
枪	-11.1582
很可能会	-11.1583
症	-11.1585
画	-11.1585
静	-11.1585
▁differ	-11.1585
乌干达	-11.1585
柬埔寨	-11.1585
▁happy	-11.1585
▁maritime	-11.1585
▁rwanda	-11.1585
卢旺达	-11.1586
扼杀	-11.1586
办公室	-11.1586
艾	-11.1586
虐待	-11.1586
警惕	-11.1586
激增	-11.1586
收购	-11.1586
▁hitler	-11.1586
▁hollande	-11.1586
世界的	-11.1587
连任	-11.1587
88	-11.1587
法国的	-11.1589
置于	-11.1589
的理论	-11.159
▁1999	-11.159
很好	-11.1592
▁communications	-11.1594
反抗	-11.1595
空气污染	-11.1595
黑暗	-11.1597
▁在这个	-11.1597
享有	-11.1599
动用	-11.1601
▁supports	-11.1602
抵押贷款	-11.1603
▁revolutions	-11.1604
有一些	-11.1605
合适的	-11.1608
行事	-11.1608
▁以色列	-11.1614
种子	-11.1615
ries	-11.1617
let	-11.1618
到达	-11.1619
转而	-11.1619
▁safeguard	-11.1619
简单的	-11.1619
▁tactics	-11.162
▁shortfall	-11.162
▁capitalist	-11.1622
到底	-11.1624
▁constrained	-11.1625
银行联盟	-11.1626
▁investor	-11.1626
犯下	-11.1631
▁即使是	-11.1634
传染	-11.1641
作为一个	-11.1642
的使用	-11.1644
良	-11.1645
▁brothers	-11.1649
泰	-11.1655
变得越来越	-11.1657
▁extremists	-11.1658
的故事	-11.1658
潜	-11.1658
des	-11.1661
兴趣	-11.1669
效	-11.167
▁ho	-11.1672
在中东	-11.1672
敌	-11.1675
我们在	-11.1677
的道德	-11.1677
紧缩政策	-11.1678
的进展	-11.168
▁earnings	-11.1684
流失	-11.1686
ming	-11.1686
▁lift	-11.1687
37	-11.1691
child	-11.1695
的稳定	-11.1699
的其他	-11.17
▁channels	-11.1703
而对	-11.1707
最多	-11.1707
涨	-11.171
三分之一	-11.171
-7	-11.1712
有很多	-11.1713
▁forecasts	-11.1717
▁poorly	-11.1717
▁explains	-11.1718
▁ta	-11.1719
智慧	-11.1728
焦点	-11.1729
▁margin	-11.173
责	-11.173
▁character	-11.1731
▁horizon	-11.1731
奖	-11.1732
太过	-11.1732
喜	-11.1732
夜	-11.1732
真主党	-11.1732
霍	-11.1732
▁spot	-11.1732
魅力	-11.1733
贝卢斯科尼	-11.1733
▁greenspan	-11.1733
▁benchmark	-11.1733
▁cabinet	-11.1733
▁electorate	-11.1733
▁facility	-11.1733
▁fertility	-11.1733
▁straightforward	-11.1733
▁struck	-11.1733
比特币	-11.1733
加泰罗尼亚	-11.1733
希特勒	-11.1733
▁ecological	-11.1733
穆尔西	-11.1733
排斥	-11.1733
芬兰	-11.1733
探索	-11.1733
旅行	-11.1733
全民	-11.1733
电话	-11.1733
重复	-11.1733
主持	-11.1734
全体	-11.1734
▁rail	-11.1734
▁confrontation	-11.1734
▁chosen	-11.1735
▁deter	-11.1735
上限	-11.1735
手机	-11.1735
金钱	-11.1736
欧元的	-11.1736
人道	-11.1737
▁pla	-11.1738
▁mental	-11.1738
高风险	-11.174
▁否则	-11.174
提名	-11.1741
▁criticized	-11.1742
▁funded	-11.1742
定期	-11.1742
▁23	-11.1743
产能	-11.1743
更低的	-11.1744
▁famously	-11.1745
▁balances	-11.1746
的教育	-11.1749
▁guaranteed	-11.1753
年将	-11.1753
分化	-11.1756
▁port	-11.1758
▁younger	-11.1759
ily	-11.1761
▁delivery	-11.1765
绝不	-11.1765
风险的	-11.1766
观察者	-11.1767
劳工	-11.1767
什么样的	-11.1768
▁division	-11.1769
▁element	-11.1769
做得	-11.1772
▁abuses	-11.1772
▁consideration	-11.1777
将军	-11.1777
金融业	-11.1777
战争的	-11.178
包容性	-11.1781
▁belong	-11.1781
从而让	-11.1782
很低	-11.1782
val	-11.1784
分离	-11.1787
份额	-11.1788
▁zones	-11.179
▁br	-11.1792
威	-11.1797
和全球	-11.1797
议	-11.18
的一项	-11.18
友好	-11.1801
take	-11.1801
著名的	-11.1802
并最终	-11.1812
太大	-11.1814
就业机会	-11.1814
欧洲银行	-11.1818
aw	-11.1818
记	-11.1819
ants	-11.1819
潜在的	-11.182
▁lag	-11.1825
的时期	-11.1827
就有	-11.1829
同一	-11.183
有足够的	-11.1831
忽略了	-11.1832
内部的	-11.1832
当时的	-11.1837
第二大	-11.1838
让中国	-11.1846
中国已经	-11.1846
investment	-11.1847
▁有些	-11.1848
的货币政策	-11.1849
稳步	-11.1853
字	-11.1854
债务的	-11.1857
的工具	-11.1858
及时	-11.1859
ou	-11.1863
▁request	-11.1864
▁alter	-11.1866
重重	-11.1869
忽视了	-11.1869
ble	-11.1871
脑	-11.1871
来实现	-11.1873
的部分	-11.1874
富国	-11.1875
其自身	-11.1876
助	-11.1876
安理会	-11.1879
lor	-11.188
刑	-11.188
▁civilians	-11.188
贝	-11.1881
港	-11.1881
树	-11.1881
密集	-11.1881
同性恋	-11.1882
▁commodities	-11.1882
▁laureate	-11.1882
▁repair	-11.1882
▁sensible	-11.1882
▁switzerland	-11.1882
▁uganda	-11.1882
▁intense	-11.1882
▁reckless	-11.1882
生物多样性	-11.1882
赶超	-11.1882
36	-11.1882
页岩气	-11.1882
储量	-11.1882
▁constructive	-11.1882
生效	-11.1883
放任	-11.1883
长时间	-11.1883
▁meantime	-11.1883
私营部门	-11.1883
▁fastest	-11.1884
前途	-11.1884
▁sight	-11.1884
▁avert	-11.1884
▁mao	-11.1885
借贷成本	-11.1886
▁weaknesses	-11.1886
我在	-11.1888
水平的	-11.1889
▁integrate	-11.1889
有所下降	-11.1891
行动方	-11.1891
年增长率	-11.1892
高涨	-11.1893
在某些	-11.1895
来解决	-11.1896
▁customs	-11.19
提高到	-11.1902
警告说	-11.1904
的根源	-11.1905
▁埃及	-11.1905
▁sino	-11.1907
体现了	-11.1911
脆弱性	-11.1912
环境下	-11.1915
一代人	-11.1915
将来	-11.1916
▁realized	-11.1917
▁confronted	-11.1919
▁scandal	-11.192
▁arrangement	-11.1921
▁corporation	-11.1921
催生	-11.1922
也许会	-11.1924
恰恰	-11.1924
商业银行	-11.1928
▁70	-11.1928
在那里	-11.1929
▁西方	-11.193
美国总统特朗普	-11.193
▁tons	-11.1931
充当	-11.1931
列为	-11.1933
▁伯克利	-11.1937
▁ceo	-11.194
▁plays	-11.1943
▁career	-11.1945
▁我们必须	-11.1946
深刻的	-11.1948
频繁	-11.1949
无关	-11.195
专	-11.1951
▁eat	-11.1952
▁土耳其	-11.1953
执政的	-11.1954
的生命	-11.1956
▁star	-11.1958
授予	-11.1958
阻碍了	-11.1959
的总统	-11.1961
其他地区	-11.1963
具体的	-11.1967
▁ipcc	-11.1969
系	-11.1971
对未来	-11.1972
变为	-11.1975
召开的	-11.1977
q	-11.1978
财政紧缩	-11.1978
更少	-11.1982
薪	-11.1983
徒	-11.1984
▁doubts	-11.1984
官	-11.1986
一座	-11.1987
▁gra	-11.1987
天气	-11.1989
▁town	-11.199
发展援助	-11.1992
提高利率	-11.1993
▁germans	-11.1996
250	-11.1997
技术的	-11.1999
毕竟	-11.2001
遭	-11.2008
高科技	-11.201
mar	-11.2011
必然会	-11.2015
▁punish	-11.2015
青	-11.2017
▁backing	-11.2017
丰	-11.2021
委员	-11.2023
灾	-11.2023
复	-11.2025
能带来	-11.2025
▁features	-11.203
risk	-11.2031
▁isolation	-11.2031
几周	-11.2032
弃	-11.2032
板	-11.2032
传递	-11.2033
抨击	-11.2033
胡	-11.2033
皮	-11.2033
勒庞	-11.2033
侵蚀	-11.2033
▁biodiversity	-11.2033
▁contemporar	-11.2033
▁distant	-11.2033
▁enemies	-11.2033
▁immense	-11.2033
▁infectious	-11.2033
▁thrive	-11.2033
▁volatile	-11.2033
住宅	-11.2033
▁cyprus	-11.2033
▁reagan	-11.2033
石油和天然气	-11.2033
▁相比之下	-11.2033
剩余	-11.2033
▁screening	-11.2034
未必	-11.2034
士兵	-11.2034
▁kick	-11.2034
▁iron	-11.2034
专门	-11.2034
差别	-11.2034
莫过于	-11.2034
莫迪	-11.2034
飞机	-11.2034
艾滋病毒	-11.2034
通往	-11.2034
现行	-11.2035
▁deflationary	-11.2036
▁apple	-11.2036
▁predictable	-11.2037
幸福	-11.2037
一倍	-11.2039
资本流入	-11.204
▁seat	-11.204
在此期间	-11.2041
▁erupted	-11.2042
清洁能源	-11.2042
债务负担	-11.2044
共同体	-11.2044
现实的	-11.2044
这里	-11.2044
▁tackl	-11.2047
▁detect	-11.2048
国际合作	-11.2049
建立起	-11.2049
季	-11.205
迫切需要	-11.2051
▁impede	-11.2052
light	-11.2054
▁champion	-11.2056
自由派	-11.2058
▁rooted	-11.206
将被	-11.206
▁即使在	-11.2062
ample	-11.2063
▁ratios	-11.2064
水资源	-11.2067
和创新	-11.2068
在经济	-11.2069
▁entry	-11.2069
▁fairly	-11.2069
死亡率	-11.2075
隔离	-11.2076
point	-11.2077
阿拉伯国家	-11.208
boosting	-11.2083
▁employed	-11.2085
再平衡	-11.2087
意义上	-11.2087
▁jean	-11.209
▁receiv	-11.2098
资	-11.2103
的大部分	-11.2113
大幅度	-11.2116
对经济	-11.212
榜样	-11.212
pu	-11.2123
的恐惧	-11.2124
当年	-11.2126
要让	-11.2126
存在于	-11.2126
▁hour	-11.213
赶	-11.2133
所需	-11.2133
cha	-11.2133
中国共产党	-11.2134
出现的	-11.2135
的持续	-11.2137
▁但尽管	-11.2139
▁fill	-11.214
在阿富汗	-11.2141
▁monitor	-11.2141
▁sheet	-11.2141
市长	-11.2143
▁looked	-11.2145
▁deepen	-11.2147
企业和	-11.2151
▁unrest	-11.2151
▁withdraw	-11.2152
导向	-11.2158
assad	-11.2159
▁accepting	-11.216
cra	-11.2169
▁在欧洲	-11.217
和文化	-11.2171
相同的	-11.2173
▁drivers	-11.2177
共同的	-11.2178
误解	-11.2178
的预算	-11.2182
的信任	-11.2182
▁auto	-11.2182
▁barr	-11.2184
▁assumptions	-11.2184
穿	-11.2185
围绕	-11.2185
齐	-11.2186
撒哈拉以南非洲	-11.2186
认知	-11.2186
味	-11.2187
戴	-11.2187
请	-11.2187
充斥着	-11.2187
吸烟	-11.2187
萎缩	-11.2187
▁criteria	-11.2187
▁disastrous	-11.2187
▁fraction	-11.2187
▁frustration	-11.2187
▁landscape	-11.2187
▁likelihood	-11.2187
▁memory	-11.2187
▁mexican	-11.2187
▁propaganda	-11.2187
▁soldiers	-11.2187
▁steadily	-11.2187
邀请	-11.2187
▁surpass	-11.2187
▁walk	-11.2187
研究者	-11.2187
停滞不前	-11.2187
救援	-11.2187
重启	-11.2187
▁software	-11.2187
耗尽	-11.2187
触发	-11.2188
组建	-11.2188
▁punishment	-11.2188
▁mal	-11.2188
▁stick	-11.2188
同情	-11.2189
▁parity	-11.2189
多样性	-11.2189
▁coastal	-11.2189
所导致的	-11.2189
assuming	-11.2192
▁initiated	-11.2192
撤出	-11.2192
弹性	-11.2192
▁somehow	-11.2193
叛乱	-11.2194
英国政府	-11.2194
大屠杀	-11.2194
▁respectively	-11.2194
地理	-11.2196
▁spurred	-11.2196
▁坎布里奇	-11.2197
▁proliferation	-11.22
小国	-11.2203
产权	-11.221
西部	-11.221
▁focuses	-11.221
▁actively	-11.2212
刺激了	-11.2212
同等	-11.2213
所采取的	-11.2215
▁monitoring	-11.2216
东部	-11.2218
的数字	-11.222
梦想	-11.2223
▁teachers	-11.2223
事实是	-11.2224
的存在	-11.2225
国债	-11.2228
▁collapsed	-11.2229
敌对	-11.2229
▁giant	-11.223
▁entail	-11.223
▁ambition	-11.2231
▁treatments	-11.2232
也要	-11.2233
控制权	-11.2239
▁hear	-11.224
注定	-11.2243
在印度	-11.2244
▁headed	-11.2245
年代初	-11.225
身为	-11.225
大幅下降	-11.2253
▁aspects	-11.2257
▁believes	-11.2258
▁indebted	-11.226
▁underpinn	-11.226
▁bar	-11.2261
大量的	-11.2265
的一次	-11.2276
的第一	-11.2276
▁represented	-11.2279
▁waiting	-11.2279
▁lacking	-11.2279
▁affecting	-11.228
▁preserv	-11.229
态势	-11.2294
隔	-11.2298
做了	-11.23
▁8%	-11.2303
与之	-11.2303
跳	-11.2306
不出	-11.2307
支	-11.2316
▁secur	-11.2317
▁bust	-11.2319
中美	-11.232
▁profession	-11.2321
平均水平	-11.2322
▁意大利	-11.2325
于是	-11.2328
大多数人	-11.2328
ler	-11.233
随时	-11.2335
观察家	-11.2337
自身利益	-11.2338
外汇	-11.2339
章	-11.2343
横	-11.2343
庇护	-11.2343
婴儿	-11.2343
灯	-11.2343
叙事	-11.2343
▁bureaucratic	-11.2343
▁dignity	-11.2343
▁lisbon	-11.2343
▁reversal	-11.2343
▁warfare	-11.2343
▁collateral	-11.2343
▁drove	-11.2343
▁irish	-11.2343
卡扎菲	-11.2343
既得利益	-11.2343
折磨	-11.2344
▁princeton	-11.2344
▁shut	-11.2344
▁nutrition	-11.2344
混合	-11.2344
北部	-11.2344
▁好消息是	-11.2344
实验室	-11.2344
异常	-11.2344
▁reference	-11.2344
▁retreat	-11.2344
▁dying	-11.2344
▁laid	-11.2344
替代方案	-11.2346
▁adaptation	-11.2347
同事	-11.2349
▁acceptable	-11.2349
恢复力	-11.2349
▁observed	-11.235
中小企业	-11.2351
误	-11.2352
医疗服务	-11.2352
▁correction	-11.2354
▁pledged	-11.2354
▁n	-11.2355
▁reminder	-11.2356
市场上	-11.2357
▁desperately	-11.2357
▁mood	-11.2358
▁fishing	-11.2358
的重大	-11.2359
美国对	-11.2359
▁missed	-11.236
standing	-11.236
的必要性	-11.2363
▁任何	-11.2364
做好	-11.2366
aids	-11.2366
▁facto	-11.2366
三分之二	-11.2369
▁chi	-11.2371
security	-11.2373
经济中	-11.2381
▁venture	-11.2388
日本银行	-11.2388
▁discussed	-11.239
▁imbalance	-11.239
▁crop	-11.239
非常规	-11.2392
▁achievement	-11.2395
无论是	-11.2395
ker	-11.2395
ham	-11.2396
也被	-11.2399
其经济	-11.2401
很快就会	-11.2402
年全球金融危机	-11.2402
范围的	-11.2404
▁attempted	-11.2404
安全和	-11.2404
将面临	-11.2404
给出	-11.2407
位置	-11.2408
性质	-11.2409
公众对	-11.2411
本应	-11.2412
▁app	-11.2416
多么	-11.2423
般	-11.2424
相应	-11.2428
▁pacific	-11.2429
▁阿根廷	-11.243
拉动	-11.2432
的国内	-11.2435
gel	-11.2436
的资产负债表	-11.2437
需求的	-11.2438
能为	-11.2438
的钱	-11.2438
的声音	-11.2439
的最后	-11.2439
▁recognizes	-11.2439
▁delivering	-11.2442
掩盖	-11.2447
面向	-11.2448
二十年	-11.2451
▁functioning	-11.2453
lic	-11.2455
▁pick	-11.2456
▁holdings	-11.2457
的冲击	-11.2458
否决	-11.2459
二十一世纪	-11.246
的某些	-11.246
根源	-11.2462
▁purposes	-11.2469
的一些	-11.2469
▁note	-11.2472
丰富	-11.2475
▁cycles	-11.2475
登	-11.2477
的复苏	-11.2478
western	-11.2478
▁claiming	-11.2481
政府必须	-11.2481
生产者	-11.2481
失望	-11.2481
▁acts	-11.2486
妨碍	-11.2486
▁missiles	-11.249
政府支出	-11.2491
▁drag	-11.2491
情景	-11.2492
▁relie	-11.2493
这些政策	-11.2494
划	-11.2495
隐	-11.2496
占全球	-11.2496
生产商	-11.2496
king	-11.2496
极度	-11.2497
严	-11.2499
的文化	-11.25
的科学	-11.25
逮捕	-11.2501
单方面	-11.2501
过剩	-11.2501
辩	-11.2501
音	-11.2501
大西洋	-11.2502
奥朗德	-11.2502
▁advancing	-11.2502
▁arguably	-11.2502
▁destabilizing	-11.2502
▁earthquake	-11.2502
▁existential	-11.2502
▁judiciary	-11.2502
▁plausible	-11.2502
▁triumph	-11.2502
▁absent	-11.2502
▁bitcoin	-11.2502
邪恶	-11.2502
白宫	-11.2502
秘鲁	-11.2502
企图	-11.2502
杂志	-11.2502
▁amendment	-11.2502
▁yen	-11.2503
附近	-11.2503
公债	-11.2503
▁heighten	-11.2503
赢家	-11.2503
远低于	-11.2503
▁harmful	-11.2503
直面	-11.2503
性别平等	-11.2504
最高法院	-11.2504
私有化	-11.2504
▁schemes	-11.2504
主动	-11.2505
第二次	-11.2506
ite	-11.2507
▁flawed	-11.2507
不良	-11.2508
作家	-11.2508
▁solely	-11.2509
提前	-11.251
储蓄率	-11.2512
▁classes	-11.2512
尽可能	-11.2512
▁discovered	-11.2512
ranging	-11.2513
▁protectionist	-11.2514
的公民	-11.2514
而且还	-11.2515
▁substitute	-11.2516
▁widening	-11.2516
▁acknowledged	-11.2516
▁evident	-11.2516
▁computers	-11.2519
▁embraced	-11.252
▁adhere	-11.2521
已是	-11.2524
▁connect	-11.2525
的援助	-11.2525
1000	-11.2526
了大量	-11.2527
▁mess	-11.253
哪个	-11.2538
▁destroyed	-11.2539
▁alliances	-11.254
的障碍	-11.254
产生的	-11.2542
可以为	-11.2544
▁perform	-11.2549
金融中心	-11.2549
▁persist	-11.255
全民公决	-11.2553
▁bias	-11.2554
案例	-11.2556
▁details	-11.2561
▁predictions	-11.2562
有意	-11.2572
▁tv	-11.2572
商人	-11.2576
过高	-11.2582
▁god	-11.2583
▁decent	-11.2593
▁amr	-11.2594
▁suggesting	-11.2598
免	-11.2602
nc	-11.2602
在这里	-11.2603
▁insecurity	-11.2606
严厉	-11.2606
▁rec	-11.2606
裁决	-11.261
这一数字	-11.261
机构的	-11.2614
的外交	-11.2616
▁distinguish	-11.2617
▁russians	-11.2619
学会	-11.2621
万美元	-11.2627
源自	-11.2628
▁按照	-11.2632
▁rome	-11.2633
但如果	-11.2636
1945	-11.264
双边关系	-11.2641
▁($	-11.2642
who	-11.2643
▁更重要的是	-11.2644
承	-11.2649
以上的	-11.265
ceo	-11.2651
与俄罗斯	-11.2651
▁explicit	-11.2652
▁consume	-11.2653
▁macro	-11.2656
凯恩斯主义	-11.2659
的目标是	-11.2659
char	-11.266
死于	-11.266
航	-11.2661
▁我们的	-11.2662
纪念	-11.2662
艺术	-11.2662
剂	-11.2662
渐进	-11.2662
怒	-11.2663
险	-11.2663
震惊	-11.2663
艰巨	-11.2663
刚	-11.2663
押	-11.2663
8,000	-11.2663
揭露	-11.2663
▁applies	-11.2663
▁convincing	-11.2663
▁split	-11.2663
▁tsunami	-11.2663
俱乐部	-11.2663
▁fault	-11.2663
▁supervisor	-11.2663
▁ultra	-11.2663
区块链	-11.2663
▁confin	-11.2663
▁undertake	-11.2663
摩洛哥	-11.2663
累积	-11.2663
鲁哈尼	-11.2663
愚蠢	-11.2663
罗马尼亚	-11.2663
加深	-11.2664
▁elderly	-11.2665
哈佛大学	-11.2666
的家庭	-11.2667
39	-11.267
▁explicitly	-11.2675
▁distributed	-11.2675
▁kyoto	-11.2677
不仅仅	-11.2678
▁diminished	-11.2678
的前	-11.2679
政府对	-11.2679
▁symbol	-11.2682
的难民	-11.2684
▁bills	-11.2685
▁sets	-11.2686
都不会	-11.2687
决不能	-11.2689
和伊朗	-11.269
▁blamed	-11.2695
影响的	-11.2697
▁employers	-11.2698
对比	-11.2698
▁reward	-11.2701
在不	-11.2703
▁ranks	-11.2705
▁shia	-11.2705
▁settlements	-11.2706
欧洲理事会	-11.2707
▁trials	-11.2708
不想	-11.271
900	-11.2714
的一大	-11.2715
结束了	-11.2717
▁violations	-11.2718
个成员国	-11.2722
▁attitude	-11.2724
贸易和	-11.2725
关键性	-11.2728
适合	-11.273
的土地	-11.2732
▁roma	-11.2733
▁twitter	-11.2736
有害	-11.2739
在最近的	-11.2739
研究所	-11.2741
实施的	-11.2745
智	-11.2746
net	-11.2747
就应该	-11.2748
提醒	-11.2751
条件下	-11.2753
的潜力	-11.2754
层面的	-11.2754
▁distance	-11.2755
它也	-11.2759
▁owners	-11.276
全球增长	-11.2763
反对者	-11.2765
经济和政治	-11.2766
0.5	-11.2768
▁warm	-11.2768
世界其他国家	-11.2769
是以	-11.2769
和国家	-11.277
出生	-11.2771
▁notice	-11.2776
▁最重要的是	-11.2776
▁waters	-11.2779
收入的	-11.2794
不像	-11.2794
它在	-11.2797
▁skill	-11.2799
▁bri	-11.28
▁accordingly	-11.28
由此	-11.2801
较低的	-11.2801
另一方面	-11.2802
结合	-11.2802
简	-11.2805
能够获得	-11.2805
1991	-11.2807
service	-11.2808
石油价格	-11.2808
society	-11.2808
corruption	-11.2808
不公平	-11.2808
的感觉	-11.2808
reform	-11.2808
迫切	-11.2809
▁contest	-11.281
▁确实	-11.2812
▁panic	-11.2812
估值	-11.2816
▁govern	-11.2818
空气	-11.2818
眼下	-11.2819
▁acquire	-11.2819
毁	-11.2821
叶	-11.2822
等等	-11.2824
也开始	-11.2825
剧	-11.2825
培养	-11.2825
▁refer	-11.2827
酒	-11.2827
康	-11.2827
抢	-11.2827
▁overhaul	-11.2827
▁privacy	-11.2827
▁evil	-11.2827
注册	-11.2827
▁revive	-11.2827
猜测	-11.2827
苹果	-11.2827
检测	-11.2827
开采	-11.2828
偏离	-11.2828
▁somalia	-11.2828
忍受	-11.2828
▁burst	-11.2828
▁stakeholders	-11.2828
认同	-11.2828
▁ethics	-11.2828
本土	-11.2828
祖国	-11.2829
论文	-11.2829
▁containment	-11.2829
▁dire	-11.283
些	-11.283
推特	-11.2831
▁expansionary	-11.2832
比赛	-11.2832
▁hence	-11.2832
朝着	-11.2833
▁complexity	-11.2833
▁closest	-11.2833
外债	-11.2834
强化了	-11.2834
对付	-11.2839
▁endless	-11.284
▁electronic	-11.2843
▁looming	-11.2844
的重点	-11.2846
drew	-11.2847
▁confirmed	-11.2849
国际秩序	-11.285
▁returning	-11.2855
通常是	-11.2856
推动了	-11.2856
▁中国政府	-11.2856
▁founding	-11.2857
全世界的	-11.2862
▁$7	-11.2865
▁bomb	-11.2866
▁robots	-11.2866
▁distortions	-11.2866
的人民	-11.2872
就要	-11.2872
小说	-11.2875
▁professionals	-11.2877
▁method	-11.2879
▁student	-11.2882
▁politician	-11.2882
数字化	-11.2883
期限	-11.2884
所提供的	-11.2888
▁declines	-11.2888
可用	-11.2889
也存在	-11.2899
▁creditor	-11.29
col	-11.2902
▁legally	-11.2902
▁香港	-11.2902
谋	-11.2905
低收入	-11.2906
▁animal	-11.2908
对他们	-11.2909
法国人	-11.2909
根本没有	-11.291
便宜	-11.2914
▁fashion	-11.2914
▁stated	-11.2915
最有	-11.2915
别人	-11.2916
将对	-11.2921
商品价格	-11.2922
曾在	-11.2922
并因此	-11.2926
在他	-11.2926
和技术	-11.2926
▁ineffective	-11.2927
其中一个	-11.293
阻止了	-11.2933
欧洲和	-11.2934
▁nazi	-11.2934
已开始	-11.2934
开放的	-11.2939
就已经	-11.294
有利的	-11.2942
全新	-11.2943
的非	-11.2944
也已经	-11.2944
国的	-11.2944
▁achievements	-11.2945
剥夺	-11.2946
人死亡	-11.2954
今	-11.2955
▁begins	-11.2955
不得	-11.2955
第五	-11.2956
稳定和	-11.2956
那里的	-11.2958
气候变化的	-11.2961
叫	-11.2962
名为	-11.2964
新政府	-11.2964
下了	-11.2964
价格稳定	-11.2964
引	-11.2964
和发展	-11.2969
25%	-11.2973
▁attribut	-11.2978
▁algeria	-11.2978
rous	-11.2979
却没有	-11.298
毁灭	-11.2981
sum	-11.2982
技术进步	-11.2986
都应该	-11.2987
的地缘政治	-11.2987
慈善	-11.2987
警	-11.2989
▁occasion	-11.299
告	-11.2991
红利	-11.2991
折	-11.2993
世界各地	-11.2993
的报告	-11.2993
▁courage	-11.2994
狂	-11.2994
希拉里	-11.2994
京都议定书	-11.2994
claud	-11.2994
▁cambodia	-11.2994
▁club	-11.2994
▁destructive	-11.2994
▁happiness	-11.2994
▁helium	-11.2994
▁supplement	-11.2994
▁pioneer	-11.2994
宣扬	-11.2994
▁architecture	-11.2994
▁slogan	-11.2994
▁comparative	-11.2994
▁rigid	-11.2994
▁bin	-11.2994
轻松	-11.2994
亦然	-11.2994
▁display	-11.2994
▁ironically	-11.2994
修建	-11.2994
▁childhood	-11.2994
▁motivation	-11.2994
经常项目赤字	-11.2994
苦难	-11.2995
幻想	-11.2995
接种	-11.2995
刑事	-11.2995
▁rethink	-11.2995
▁letter	-11.2996
▁raw	-11.2996
▁selection	-11.2997
低效	-11.2999
▁‘	-11.2999
就连	-11.3
▁realities	-11.3001
▁reconciliation	-11.3002
负面	-11.3003
充足的	-11.3003
▁exacerbated	-11.3004
欧洲经济	-11.3005
▁peru	-11.3007
▁coherent	-11.3008
▁voices	-11.301
能源效率	-11.3011
数十亿美元	-11.3011
副	-11.3012
的控制	-11.3012
体现在	-11.3012
有理由	-11.3013
的信誉	-11.3013
着手	-11.3013
▁也就是	-11.3014
▁mckinsey	-11.3015
谈判中	-11.3015
的理念	-11.3016
美好	-11.3017
▁aspirations	-11.3018
还应该	-11.3019
tar	-11.3022
▁mixed	-11.3023
在我们	-11.3023
▁millennium	-11.3024
的限制	-11.3025
客	-11.3025
bri	-11.3025
▁mayor	-11.3026
也门	-11.3028
充分的	-11.3029
▁各国	-11.3031
▁informed	-11.3032
是不	-11.3034
不可避免	-11.3039
▁布鲁塞尔	-11.304
▁advocate	-11.3042
▁如果中国	-11.3043
末	-11.3044
effective	-11.3045
▁rock	-11.3047
来源于	-11.305
财政部	-11.305
所得税	-11.305
▁drought	-11.3051
▁transaction	-11.3051
借口	-11.3052
▁tension	-11.3053
万亿美元的	-11.3054
的石油	-11.3054
忘记	-11.3055
ations	-11.3056
financial	-11.3057
增长放缓	-11.3057
贷款人	-11.3058
的平均	-11.3061
他们会	-11.3062
账	-11.3065
的上升	-11.3066
的竞争	-11.3067
而又	-11.3068
激进的	-11.3075
发达国家的	-11.3076
▁rent	-11.3078
改造	-11.3078
的商业	-11.3082
文章	-11.3084
越来越大	-11.3087
高层	-11.3098
▁世界银行	-11.3106
▁animals	-11.3108
罪行	-11.3108
协会	-11.3109
▁facilitat	-11.3109
约为	-11.3109
一词	-11.3116
dis	-11.3117
系统的	-11.3119
▁tu	-11.3122
根本性	-11.3124
久	-11.3124
美军	-11.3125
世界其他地区	-11.3127
▁cons	-11.3128
的主权	-11.3134
大胆	-11.3134
▁suppress	-11.3135
好消息	-11.3135
一部	-11.3138
就无法	-11.3139
▁lived	-11.3139
的总体	-11.314
经济利益	-11.3141
篇	-11.3142
▁sh	-11.3142
冲	-11.3144
会使	-11.3145
manuel	-11.3147
沉默	-11.3147
限	-11.3148
proliferation	-11.3149
left	-11.3151
的一种	-11.3154
tpp	-11.3155
所有国家	-11.316
▁ro	-11.3161
温室气体	-11.3161
围	-11.3162
数百万人	-11.3162
迟	-11.3162
丽	-11.3163
裔	-11.3163
onald	-11.3163
制衡	-11.3163
日内瓦	-11.3163
罗斯福	-11.3164
楼	-11.3164
▁engaging	-11.3164
▁speculative	-11.3164
▁temporarily	-11.3164
▁tomorrow	-11.3164
▁vested	-11.3164
▁conversation	-11.3164
▁emotional	-11.3164
▁honest	-11.3164
▁piketty	-11.3164
▁xiaoping	-11.3164
▁2008-2009	-11.3164
掌控	-11.3164
架构	-11.3164
▁outflows	-11.3164
▁compact	-11.3164
缓冲	-11.3164
撤销	-11.3164
▁theories	-11.3164
▁duty	-11.3164
▁preferred	-11.3164
执法	-11.3164
做好准备	-11.3164
倒退	-11.3164
指定	-11.3165
临近	-11.3165
打算	-11.3165
局限于	-11.3166
它们在	-11.3167
二氧化碳排放	-11.3167
减缓	-11.3167
米尔	-11.3168
是不够的	-11.3169
可能成为	-11.3169
很好地	-11.317
▁nu	-11.3171
创新和	-11.3171
▁introduction	-11.3172
并非如此	-11.3172
▁compare	-11.3172
总量的	-11.3173
创造力	-11.3173
准备好	-11.3174
当代	-11.3174
他对	-11.3175
上周	-11.3176
▁forget	-11.3178
我们将	-11.318
▁gases	-11.318
将从	-11.3182
数千	-11.3183
是全球	-11.3183
▁alarm	-11.3185
2025	-11.3185
年金融危机	-11.3188
▁maybe	-11.3189
ept	-11.3189
创造出	-11.3191
研究人员	-11.3192
形式的	-11.3192
的收益	-11.3195
任何人	-11.3195
中亚	-11.3197
价格上涨	-11.3198
▁crimea	-11.3198
财政联盟	-11.3199
财政和	-11.32
dding	-11.3202
层次	-11.3205
▁grant	-11.3206
▁ends	-11.321
近几年来	-11.321
不久	-11.321
▁reading	-11.3211
路线	-11.3212
遗产	-11.3214
的人来说	-11.3216
因素是	-11.3217
的气候	-11.3217
▁agents	-11.3217
▁rush	-11.3218
斯坦	-11.3219
需要在	-11.3222
提供了一个	-11.3222
▁mother	-11.3223
▁这场	-11.3224
pri	-11.3228
▁occurs	-11.3228
公共投资	-11.3233
增长和	-11.3234
▁lately	-11.3236
大学的	-11.3236
▁headlines	-11.3237
▁worsen	-11.3238
医	-11.3238
▁speaking	-11.3239
行动的	-11.3242
该组织	-11.3245
建国	-11.3246
za	-11.3246
解决办法	-11.325
▁这项	-11.3253
为自己	-11.3254
非常重要	-11.3255
我们所	-11.3257
▁periods	-11.3259
▁challenged	-11.326
口号	-11.3264
而被	-11.3269
▁friend	-11.3269
房产	-11.3273
▁phone	-11.3278
份	-11.3282
▁weigh	-11.3283
西方的	-11.3283
▁maximize	-11.3286
▁自从	-11.3287
稳定性	-11.3288
不过是	-11.3294
一方	-11.3298
单一货币	-11.33
或其他	-11.3303
▁2013.	-11.3307
清算	-11.331
▁assert	-11.3311
感受到	-11.3311
源于	-11.3314
抵押	-11.3314
指望	-11.3315
效益	-11.3316
tre	-11.3318
的批评	-11.3321
democratic	-11.3322
外交官	-11.3322
基督教	-11.3323
paul	-11.3326
每个人都	-11.3326
limiting	-11.3327
▁regulate	-11.3328
超出	-11.3328
密切	-11.3329
殖民	-11.3329
拖	-11.3329
滑	-11.3329
的不确定性	-11.333
震	-11.333
▁frameworks	-11.333
总统选举	-11.3331
冒	-11.3331
▁warn	-11.3332
规模的	-11.3333
伴随	-11.3334
侵犯	-11.3334
▁involves	-11.3335
的模式	-11.3335
▁recruit	-11.3335
纸	-11.3335
龙	-11.3336
玩	-11.3336
▁argentine	-11.3336
▁czech	-11.3336
▁deleveraging	-11.3336
▁extremism	-11.3336
▁feasible	-11.3336
▁gülen	-11.3336
▁magnitude	-11.3336
▁optimism	-11.3336
▁roosevelt	-11.3336
▁innocent	-11.3336
追踪	-11.3336
塑料	-11.3336
▁vicious	-11.3336
科研	-11.3336
元素	-11.3336
▁visible	-11.3336
容克	-11.3336
▁promotion	-11.3337
▁produces	-11.3337
超级大国	-11.3337
令人失望	-11.3337
南亚	-11.3337
范式	-11.3337
买入	-11.3338
▁unification	-11.3338
名单	-11.3339
▁deem	-11.3339
在许多	-11.334
会计	-11.3341
▁devoted	-11.3341
▁popularity	-11.3343
一支	-11.3343
将有助于	-11.3343
▁结果是	-11.3344
最贫困	-11.3344
行动起来	-11.3344
▁experiences	-11.3345
马里	-11.3348
国内消费	-11.3349
▁deployed	-11.3351
将给	-11.3351
对这些	-11.3351
现有的	-11.3355
▁formed	-11.3355
所引发的	-11.3358
spi	-11.3358
会让	-11.3361
▁$10	-11.337
▁devices	-11.3371
很小	-11.3375
公共政策	-11.3378
与欧洲	-11.3379
▁borrowed	-11.3385
家人	-11.3387
在整个	-11.3388
新一代	-11.3389
sdr	-11.339
▁pledge	-11.339
▁whi	-11.3393
▁dangerously	-11.3394
▁wto	-11.3396
更新	-11.3397
▁village	-11.3397
也有可能	-11.3397
▁circle	-11.3397
▁obstacle	-11.3399
实质	-11.3399
▁cell	-11.34
ral	-11.3401
▁200	-11.3402
多年的	-11.3402
▁28	-11.3403
眼中	-11.3407
和印度	-11.3408
▁ukrainian	-11.3409
▁是的	-11.3413
win	-11.3415
▁react	-11.3417
▁store	-11.3418
▁hub	-11.3419
的注意力	-11.3421
▁今天的	-11.3425
▁关于	-11.3427
在短期内	-11.3427
摆	-11.3431
▁stream	-11.3433
▁ecosystems	-11.3434
两倍	-11.3435
▁te	-11.344
各大	-11.3441
是不可能的	-11.3442
事关	-11.3447
350	-11.345
的问题是	-11.3456
的理解	-11.3456
▁sum	-11.3458
极低	-11.3459
和国际	-11.346
不起	-11.3464
▁site	-11.3466
▁interesting	-11.3466
af	-11.3466
▁loose	-11.3467
生育率	-11.3468
一段	-11.3469
▁sn	-11.3471
ques	-11.3473
tim	-11.3476
并为	-11.3478
加入了	-11.3479
▁hot	-11.3481
遇到	-11.3487
▁broaden	-11.3487
份子	-11.3491
这让	-11.3493
的汇率	-11.3498
夺	-11.3498
▁unilateral	-11.3499
样	-11.3499
▁unions	-11.35
日常	-11.35
▁unexpected	-11.35
▁games	-11.3501
一致的	-11.3502
global	-11.3503
big	-11.3503
water	-11.3503
good	-11.3504
6,000	-11.3505
这就是	-11.3506
评级	-11.3507
巴沙尔	-11.3508
接下来	-11.3509
曲	-11.3511
降至	-11.3511
冰	-11.3511
架	-11.3511
尼克松	-11.3511
▁cautious	-11.3511
▁creativity	-11.3511
▁desirable	-11.3511
▁temptation	-11.3511
▁tendency	-11.3511
▁yemen	-11.3511
▁satisfy	-11.3511
▁surface	-11.3511
着眼于	-11.3511
▁anemic	-11.3511
▁guidelines	-11.3511
卡塔尔	-11.3511
▁psychological	-11.3511
▁enduring	-11.3511
▁indication	-11.3511
雇佣	-11.3511
穆斯林兄弟会	-11.3511
杀戮	-11.3511
罕见	-11.3512
▁geneva	-11.3512
音乐	-11.3512
▁night	-11.3512
周围	-11.3512
耗费	-11.3512
职务	-11.3512
港口	-11.3512
▁unemployed	-11.3512
▁johnson	-11.3512
▁dysfunctional	-11.3513
▁shot	-11.3513
禁令	-11.3513
出席	-11.3514
简化	-11.3514
▁height	-11.3518
爆发的	-11.3518
其中一些	-11.3518
▁300	-11.3519
▁2008.	-11.3519
颇为	-11.3519
▁bridge	-11.3522
又一次	-11.3522
的受害者	-11.3525
中国国家主席习近平	-11.3525
▁为什么	-11.3525
的组织	-11.3526
而美国	-11.3528
▁factory	-11.3528
▁restraint	-11.3528
▁pi	-11.3529
能源和	-11.3531
▁boe	-11.3533
under	-11.3534
国有	-11.3535
就业率	-11.3536
债券市场	-11.3536
对全球	-11.3538
ec	-11.3539
▁hedge	-11.3539
对英国	-11.354
的时刻	-11.3547
经济问题	-11.3549
说法	-11.355
▁engineer	-11.3553
▁contained	-11.3553
▁doubled	-11.3553
充分利用	-11.3555
suing	-11.3556
时机	-11.3557
该公司	-11.3566
重振	-11.3566
▁operational	-11.3569
往往会	-11.3574
▁instrument	-11.3574
▁basel	-11.3576
▁merit	-11.3576
顾	-11.3581
ah	-11.3585
将于	-11.3591
mark	-11.3591
▁emphasize	-11.3594
吸引了	-11.3594
一批	-11.3594
我们也	-11.36
hu	-11.3601
31	-11.3603
一定的	-11.3604
▁seeds	-11.3605
▁citizen	-11.3606
事物	-11.3608
极端贫困	-11.3611
较为	-11.3614
创业	-11.3615
当务之急	-11.3616
的许多	-11.3617
面临的	-11.362
大宗商品价格	-11.3625
lit	-11.3628
影响了	-11.3633
▁undergo	-11.3633
社会福利	-11.3634
的方向	-11.3634
是其	-11.3637
非洲人	-11.3638
▁习近平	-11.3643
▁伊朗	-11.3648
这也	-11.3648
类型的	-11.3649
格林斯潘	-11.365
▁reduces	-11.365
▁si	-11.3656
▁hospitals	-11.3658
▁renewables	-11.3662
来为	-11.3664
然而	-11.3668
花了	-11.3669
▁differently	-11.367
▁components	-11.3672
资本流动	-11.3673
策	-11.3675
购买力	-11.3675
▁typical	-11.3679
这一过程	-11.368
how	-11.368
▁appreciate	-11.3682
known	-11.3682
▁permit	-11.3683
的有效	-11.3683
‘	-11.3684
1999	-11.3685
受欢迎	-11.3685
▁freely	-11.3686
长期的	-11.3687
▁demanded	-11.3688
▁liquid	-11.3688
城镇	-11.3689
浪潮	-11.3689
凭	-11.3689
载	-11.3689
歌	-11.369
丘吉尔	-11.369
轨迹	-11.369
顽固	-11.369
▁choosing	-11.369
▁irrelevant	-11.369
豁免	-11.369
▁depth	-11.369
肥胖	-11.369
▁brown	-11.369
▁meltdown	-11.369
▁disarmament	-11.369
▁transmission	-11.369
签证	-11.369
▁biological	-11.369
▁shaping	-11.369
体育	-11.369
成绩	-11.369
举办	-11.369
▁macri	-11.369
奉行	-11.369
单独	-11.369
诚实	-11.369
永远不会	-11.369
▁craft	-11.369
▁bought	-11.369
耐心	-11.369
▁foreseeable	-11.3691
退休金	-11.3691
加密货币	-11.3691
▁hegemony	-11.3692
▁revival	-11.3692
排名	-11.3692
用途	-11.3692
▁denied	-11.3693
警方	-11.3694
▁frequent	-11.3694
▁richest	-11.3695
新常态	-11.3696
▁quarters	-11.3698
arian	-11.3698
▁strongest	-11.37
暴	-11.37
的德国	-11.3703
▁highlighted	-11.3704
无人	-11.3704
大致	-11.3705
▁pays	-11.3705
的生存	-11.3706
▁carrie	-11.3709
▁equilibrium	-11.3709
下一次	-11.3709
从前	-11.371
深层次	-11.3711
的儿童	-11.3714
对我们	-11.3715
▁fi	-11.3716
port	-11.3718
迫害	-11.3719
▁touch	-11.372
▁lawyers	-11.3722
▁enemy	-11.3722
不具备	-11.3723
同时又	-11.3724
转换	-11.3725
化学	-11.3728
是欧洲	-11.3731
占据了	-11.3731
花在	-11.3732
▁interact	-11.3733
政治意愿	-11.3734
丰富的	-11.3735
多重	-11.3735
违反了	-11.3738
▁imported	-11.374
收回	-11.3742
基础的	-11.3745
▁scholars	-11.3746
共同利益	-11.3748
▁waves	-11.3748
▁sphere	-11.375
▁farming	-11.3751
的孩子	-11.3753
▁appealing	-11.3754
▁occupation	-11.3755
▁underpin	-11.3755
quarter	-11.3757
的税收	-11.3757
政治上	-11.3759
在哪里	-11.3759
五个	-11.3759
▁联合国	-11.376
▁victim	-11.376
工作时间	-11.3761
如同	-11.3761
新兴市场国家	-11.3761
的成员国	-11.3762
▁compensate	-11.3762
▁hoped	-11.3763
控	-11.3766
来应对	-11.3766
国内政治	-11.3767
▁notes	-11.3767
▁requirement	-11.3768
▁sin	-11.3771
▁follows	-11.3772
▁stakes	-11.3777
moon	-11.3777
▁qu	-11.3779
中国将	-11.3782
项目的	-11.3782
货	-11.3782
gy	-11.3784
驱动的	-11.3785
但仍	-11.3786
也让	-11.3786
就不会	-11.3791
的暴力	-11.3793
这两种	-11.3794
发挥作用	-11.3794
民主化	-11.3797
▁edge	-11.3801
▁至少	-11.3802
贸易协定	-11.3807
1.4	-11.3809
坦	-11.3812
没有一个	-11.3817
困	-11.3818
不容	-11.3821
▁pensions	-11.3821
▁attend	-11.3823
industrial	-11.3831
压低	-11.3832
斗	-11.3834
驱逐	-11.3835
和以色列	-11.3835
▁dose	-11.3836
政治动荡	-11.3837
▁intentions	-11.3838
▁这样做	-11.3845
ign	-11.3848
2°	-11.385
chi	-11.3855
全球市场	-11.3856
会给	-11.3858
访	-11.3863
的思想	-11.3864
扬	-11.3866
算法	-11.3866
主体	-11.3867
根本无法	-11.3868
了这一点	-11.3869
脱	-11.3869
稀缺	-11.387
defense	-11.387
宽	-11.3871
▁disagree	-11.3871
development	-11.3871
抽	-11.3872
耳	-11.3872
萨达姆	-11.3872
7,000	-11.3872
羞辱	-11.3872
▁accumulation	-11.3872
▁degradation	-11.3872
▁empirical	-11.3872
▁equitable	-11.3872
▁indispensable	-11.3872
▁preparing	-11.3872
▁qatar	-11.3872
▁sanitation	-11.3872
▁switch	-11.3872
▁churchill	-11.3872
▁nixon	-11.3872
4,000	-11.3872
▁curtail	-11.3872
▁gift	-11.3872
▁diagnostic	-11.3872
▁disintegration	-11.3872
▁availability	-11.3872
成千上万	-11.3872
隆	-11.3872
跨大西洋	-11.3872
轨道	-11.3872
隐藏	-11.3872
分担	-11.3872
切断	-11.3872
▁window	-11.3872
跨越	-11.3873
这方面的	-11.3873
作品	-11.3873
▁unacceptable	-11.3873
▁directed	-11.3874
▁但美国	-11.3874
近乎	-11.3875
▁cup	-11.3877
▁tied	-11.3878
是否能够	-11.3878
大臣	-11.3879
还包括	-11.3879
免于	-11.3879
和平的	-11.3881
▁exclusively	-11.3881
他们也	-11.3882
that	-11.3883
年代以来	-11.3884
代表着	-11.3887
推向	-11.3888
ure	-11.389
逃避	-11.3892
▁有时	-11.3893
▁centralized	-11.3895
▁adequately	-11.3896
▁prompt	-11.3898
▁judicial	-11.3898
世界各地的	-11.39
而中国	-11.3902
rd	-11.3902
即便是	-11.3902
▁最	-11.3903
了一些	-11.3904
可能造成	-11.3906
普京的	-11.3907
▁equipped	-11.3908
的举措	-11.3909
欧洲各国	-11.3913
和欧盟	-11.3915
▁reinforcing	-11.3916
▁soil	-11.3918
进一步恶化	-11.3919
直到最近	-11.3921
长的	-11.3922
满意	-11.3924
的认识	-11.3924
不可持续的	-11.3926
在世界	-11.3931
能获得	-11.3931
头上	-11.3936
占了	-11.3939
era	-11.3939
▁fo	-11.3941
的破坏	-11.3942
rry	-11.3945
显示出	-11.3954
急	-11.3954
▁shortage	-11.3956
可以说	-11.3959
▁cards	-11.3959
ku	-11.3959
定义为	-11.3961
对华	-11.3961
相应的	-11.3962
▁highlights	-11.3965
决定了	-11.3966
▁35%	-11.3966
不顾	-11.3969
带来巨大的	-11.3969
惊人	-11.3973
▁qaeda	-11.3975
如果不	-11.3978
国际金融	-11.3985
总统大选	-11.3985
社会和经济	-11.3987
强烈的	-11.3987
的状态	-11.3989
▁马德里	-11.3989
一群	-11.3991
1.2	-11.3996
回报率	-11.3997
最具	-11.3999
恰恰是	-11.4004
提交	-11.4005
ably	-11.4006
父亲	-11.401
出口国	-11.4011
▁diminish	-11.4011
的增长率	-11.4013
沉重的	-11.4013
行使	-11.4015
比美国	-11.4016
▁worker	-11.4016
有多	-11.402
mic	-11.4022
排放量	-11.4022
▁teach	-11.4026
已不再	-11.4028
地说	-11.403
▁listen	-11.4031
已经有	-11.4033
政府债务	-11.404
▁align	-11.404
命运	-11.4044
响	-11.4045
更长	-11.4045
▁全世界	-11.4046
迈	-11.4048
▁evolve	-11.4049
▁prudent	-11.405
卢	-11.4055
mdg	-11.4055
▁silence	-11.4056
野	-11.4056
繁	-11.4057
氏	-11.4057
国务卿	-11.4057
▁assault	-11.4057
▁embedded	-11.4057
▁implied	-11.4057
▁portray	-11.4057
▁pragmatic	-11.4057
▁saddam	-11.4057
▁smoking	-11.4057
▁speculation	-11.4057
▁suspicion	-11.4057
▁tremendous	-11.4057
▁vulnerabilities	-11.4057
▁writing	-11.4057
适得其反	-11.4057
卷土重来	-11.4057
捕捞	-11.4057
麻	-11.4057
曝光	-11.4057
宽容	-11.4057
▁veto	-11.4057
遗传	-11.4057
评价	-11.4057
▁resentment	-11.4057
霍乱	-11.4057
48	-11.4057
击败	-11.4057
▁bashar	-11.4057
精确	-11.4058
▁privatization	-11.4058
复制	-11.4058
▁unusual	-11.4058
的不满	-11.4058
临	-11.4058
联系在一起	-11.4058
▁sanders	-11.4058
副作用	-11.4058
起义	-11.4058
既然	-11.4058
1979	-11.4059
start	-11.4059
▁lee	-11.4059
▁factories	-11.4059
幸运	-11.4059
▁rally	-11.406
▁rejection	-11.406
great	-11.406
▁unified	-11.4061
发展中世界	-11.4061
force	-11.4061
ccs	-11.4062
所有者	-11.4062
green	-11.4063
下台	-11.4063
学派	-11.4064
▁arrived	-11.4064
▁followers	-11.4066
乌克兰的	-11.4067
慷慨	-11.4069
▁mine	-11.407
▁regularly	-11.4072
跨国公司	-11.4073
大选中	-11.4074
▁accession	-11.4074
核计划	-11.4074
▁whenever	-11.4074
高收入国家	-11.4075
还不到	-11.4075
三国	-11.4077
数字技术	-11.4077
永久性	-11.4079
多年来	-11.4079
▁successes	-11.408
▁shrinking	-11.4082
▁publication	-11.4082
backed	-11.4083
▁signals	-11.4083
▁incomplete	-11.4083
金融监管	-11.4086
会谈	-11.4086
▁collection	-11.4088
盈利	-11.4093
▁flaws	-11.4094
或者说	-11.4095
▁formula	-11.41
经受	-11.4101
接收	-11.4102
ile	-11.4102
在这一	-11.4103
给我们	-11.4106
美国总统奥巴马	-11.4108
是对的	-11.4108
自杀	-11.4111
的支出	-11.4112
再分配	-11.4113
▁sha	-11.4116
▁sit	-11.4117
▁treating	-11.4119
▁新德里	-11.4123
▁cor	-11.4124
病例	-11.4129
地下	-11.4131
▁judgment	-11.4132
▁storm	-11.4132
▁dividend	-11.4133
▁hundred	-11.4133
▁insights	-11.4137
将为	-11.4137
▁generals	-11.4144
这些因素	-11.4145
▁producer	-11.4146
的意义	-11.4146
▁publish	-11.4147
▁actor	-11.4148
一块	-11.4149
▁fin	-11.4151
大有	-11.4151
更强的	-11.4155
在其他	-11.4156
讲话	-11.4156
第三个	-11.4159
▁migrant	-11.416
的妇女	-11.4163
大坝	-11.4163
nk	-11.4163
姿态	-11.4168
的年轻人	-11.4169
的内容	-11.4171
向前	-11.4174
▁如果你	-11.4175
和土耳其	-11.4177
▁seeing	-11.4179
把自己	-11.4181
performing	-11.4182
定位	-11.4183
北美	-11.4185
温和的	-11.4186
▁bu	-11.4187
邻	-11.4188
工作者	-11.419
▁resemble	-11.419
▁cultures	-11.4192
log	-11.4193
▁tariff	-11.4196
▁grows	-11.4197
▁adjusted	-11.4203
另外一个	-11.4204
城市的	-11.4207
▁door	-11.4208
▁第二个	-11.4211
代表了	-11.4212
的女性	-11.4212
▁上个月	-11.4213
收到	-11.4213
的言论	-11.4214
应该成为	-11.4216
▁cr	-11.4217
严肃	-11.4217
ois	-11.4218
的学生	-11.4219
▁直到	-11.422
高收入	-11.4222
sri	-11.4222
▁financially	-11.4225
可以获得	-11.4225
的合理	-11.4225
的工人	-11.4228
清楚地	-11.4231
韩	-11.4233
美国家庭	-11.4234
一面	-11.4234
从而使	-11.4237
年里	-11.4239
事态	-11.4239
甘	-11.424
讽刺	-11.424
+	-11.4241
15%	-11.4242
金融和	-11.4242
世贸组织	-11.4243
母	-11.4243
▁intent	-11.4245
志	-11.4245
露	-11.4245
租	-11.4245
署	-11.4245
盖茨	-11.4245
宇宙	-11.4246
箱	-11.4246
宾	-11.4246
挂钩	-11.4246
编辑	-11.4246
达沃斯	-11.4246
国务院	-11.4246
à	-11.4246
▁imperfect	-11.4246
▁daunting	-11.4246
▁deterrence	-11.4246
▁revolt	-11.4246
▁stuck	-11.4246
▁territories	-11.4246
哈萨克斯坦	-11.4246
仁	-11.4246
呆	-11.4246
奖励	-11.4246
▁angry	-11.4246
▁departure	-11.4246
▁oversight	-11.4246
▁crackdown	-11.4246
德国总理默克尔	-11.4246
凭借	-11.4246
▁shortcomings	-11.4246
战术	-11.4246
路线图	-11.4246
▁stemming	-11.4246
报导	-11.4246
失误	-11.4246
▁impression	-11.4246
目光	-11.4246
▁tide	-11.4247
▁evolutionary	-11.4247
节约	-11.4247
若干	-11.4248
entrepreneurship	-11.4248
▁normalization	-11.4248
▁statistical	-11.4249
历史学家	-11.425
平稳	-11.425
解读	-11.4251
▁controlling	-11.4251
economy	-11.4252
是有	-11.4252
▁evolved	-11.4254
很大一部分	-11.4255
▁soaring	-11.4257
起点	-11.4257
▁islamists	-11.4259
▁wise	-11.4259
私人投资	-11.426
反对党	-11.4262
▁burning	-11.4262
▁governed	-11.4266
▁exchanges	-11.4267
▁consist	-11.4269
▁defaults	-11.427
▁gathering	-11.427
shi	-11.427
▁breaking	-11.427
▁shaped	-11.4272
▁blockchain	-11.4273
▁recovered	-11.4275
▁israelis	-11.4276
▁strikes	-11.4277
创建	-11.428
▁characteristics	-11.4284
▁unstable	-11.4284
根除	-11.4285
▁collectively	-11.4289
▁miss	-11.4291
ought	-11.4291
本来	-11.4293
▁hire	-11.4294
▁interference	-11.4295
数量的	-11.4296
▁anticipated	-11.4298
在今天	-11.4298
不当	-11.43
▁watching	-11.43
▁diagnosis	-11.4301
▁providers	-11.4301
输出	-11.4304
和政策	-11.4309
的大量	-11.431
▁tradable	-11.4313
▁中国领导人	-11.4317
看到了	-11.4317
▁adults	-11.4318
就算	-11.432
induced	-11.4326
▁obligation	-11.4326
开启	-11.4327
国民收入	-11.4327
总统候选人	-11.4329
▁但随着	-11.4331
cer	-11.4333
主题	-11.4335
很大的	-11.4335
如果我们	-11.4336
▁author	-11.4338
▁campaigns	-11.4342
想想	-11.4343
▁officially	-11.4346
某一	-11.4347
说明了	-11.4352
万亿	-11.4353
的问题上	-11.4353
和教育	-11.4354
0.3	-11.4355
高速	-11.4356
▁dr	-11.4357
和个人	-11.4359
▁criminals	-11.4365
关键作用	-11.4366
就有可能	-11.4366
高昂	-11.4372
的反对	-11.4372
拒绝了	-11.4373
▁serves	-11.4374
和增长	-11.4374
内需	-11.4378
聚	-11.438
强调了	-11.4381
▁summers	-11.4381
的代表	-11.4383
fra	-11.4386
外来	-11.4389
最终将	-11.4389
的真实	-11.439
神话	-11.4395
kar	-11.4398
120	-11.4399
国家政府	-11.4401
▁希腊	-11.4402
▁2014.	-11.4402
这一结果	-11.4403
随之而来的	-11.4404
达成了	-11.4408
▁gene	-11.4408
的独立	-11.4408
不止	-11.4409
的俄罗斯	-11.4413
战争中	-11.4414
利益的	-11.4415
泛	-11.4416
1.8	-11.4418
▁neglect	-11.4421
斯特	-11.4423
▁premature	-11.4426
▁smooth	-11.4426
以外的	-11.4427
旗	-11.443
▁有人	-11.4431
售	-11.4434
习	-11.4434
年时	-11.4435
护	-11.4435
雇员	-11.4437
沃	-11.4437
▁comfort	-11.4437
恶劣	-11.4437
雅	-11.4437
固	-11.4437
基准	-11.4437
欲	-11.4437
氦	-11.4437
探	-11.4438
亮	-11.4438
疫情	-11.4438
截止	-11.4438
主权财富基金	-11.4438
▁aggression	-11.4438
▁silent	-11.4438
▁staggering	-11.4438
▁arsenal	-11.4438
▁polarization	-11.4438
塑造	-11.4438
谎言	-11.4438
荒谬	-11.4438
首席执行官	-11.4438
▁utter	-11.4438
查韦斯	-11.4438
席卷	-11.4438
▁fragmented	-11.4438
疯狂	-11.4438
症状	-11.4438
隐私	-11.4438
协作	-11.4438
英雄	-11.4438
▁finland	-11.4438
外国直接投资	-11.4438
▁transnational	-11.4438
意志	-11.4438
▁sake	-11.4439
▁workplace	-11.4439
管道	-11.4439
借此	-11.4439
特色	-11.444
论调	-11.444
马克里	-11.444
▁discovery	-11.444
主导地位	-11.4441
卷入	-11.4441
▁interpretation	-11.4441
方便	-11.4441
▁unknown	-11.4441
▁music	-11.4442
无需	-11.4442
世界杯	-11.4443
千年发展目标	-11.4444
aries	-11.4445
▁safer	-11.4445
中介	-11.4446
的理想	-11.4446
value	-11.4447
saving	-11.4447
speed	-11.4448
capital	-11.4448
▁league	-11.4451
flow	-11.4451
的共识	-11.4452
▁commentators	-11.4452
▁captured	-11.4453
公路	-11.4456
没什么	-11.4457
的选票	-11.4457
▁traders	-11.4458
▁continental	-11.4458
▁jo	-11.4459
的财富	-11.4459
▁eliminated	-11.446
的领导	-11.4461
中止	-11.4461
▁provisions	-11.4463
但对	-11.4463
▁ice	-11.4463
▁在这些	-11.4464
▁arrested	-11.4466
的斗争	-11.4469
增长了	-11.4469
公共财政	-11.447
▁tens	-11.4475
为代价	-11.4475
虚假	-11.4478
▁writer	-11.4481
了其	-11.4482
债务水平	-11.4484
类型	-11.4484
大家	-11.4486
▁这也	-11.4486
也更	-11.4487
想象的	-11.4487
55	-11.4487
大使	-11.4491
股票市场	-11.4492
▁determination	-11.4493
是一位	-11.4493
更进一步	-11.4493
增长潜力	-11.4494
▁appointed	-11.4496
他们必须	-11.4497
颇	-11.4501
为期	-11.4504
高峰	-11.4506
ath	-11.4506
earth	-11.4507
成立了	-11.4507
▁odds	-11.4508
都不是	-11.4508
▁tri	-11.451
这份	-11.451
▁fake	-11.4511
岁的	-11.4514
居住	-11.4517
▁newspaper	-11.4521
▁predecessor	-11.4521
▁在这一	-11.4521
完成了	-11.4522
本周	-11.4525
▁civilization	-11.4526
哪怕	-11.4527
保守主义	-11.4527
的繁荣	-11.4527
提醒我们	-11.4529
▁就在	-11.4529
并且在	-11.4529
占比	-11.4531
其自身的	-11.4532
▁让我们	-11.4532
充分就业	-11.4535
欧洲和美国	-11.4537
▁compris	-11.4538
▁布什	-11.4541
3.5	-11.4541
▁owned	-11.4545
错了	-11.4546
的基础设施	-11.4546
▁induce	-11.4552
一个人	-11.4554
成为现实	-11.4559
极权	-11.456
的冲突	-11.4561
▁ob	-11.4561
三十年	-11.4561
国际组织	-11.4562
文化和	-11.4562
▁mario	-11.4563
我们不能	-11.4566
矿	-11.4567
1.7	-11.457
▁season	-11.4579
催生了	-11.4582
学科	-11.4582
结果是	-11.4583
似乎已经	-11.4589
▁bay	-11.4589
▁introduc	-11.4592
的竞争力	-11.4596
▁rating	-11.4596
是非常	-11.46
合适	-11.4605
▁disruptions	-11.4606
建设性	-11.4607
欧盟预算	-11.4608
创新性	-11.4608
本质上	-11.4611
欧盟内部	-11.4611
▁但现在	-11.4613
失灵	-11.4624
lay	-11.4625
未来几年	-11.4625
休	-11.4627
▁possess	-11.4627
商界	-11.4628
角	-11.4629
呈现	-11.4629
纪律	-11.4629
航空	-11.463
▁disappear	-11.463
不在	-11.463
必	-11.4631
模	-11.4631
忙	-11.4631
一体化的	-11.4632
街	-11.4632
乌	-11.4633
▁complement	-11.4633
礼	-11.4633
码	-11.4634
的名义	-11.4634
巴塞尔	-11.4634
短暂	-11.4634
▁abundant	-11.4634
▁krugman	-11.4634
海啸	-11.4634
▁bulk	-11.4634
▁discontent	-11.4634
▁dynamism	-11.4634
▁equities	-11.4634
▁exclusion	-11.4634
▁expectancy	-11.4634
▁flourish	-11.4634
▁fragmentation	-11.4634
▁miracle	-11.4634
▁morocco	-11.4634
▁oxford	-11.4634
▁prescription	-11.4634
▁proud	-11.4634
▁worries	-11.4634
匮乏	-11.4634
▁denial	-11.4634
兄弟	-11.4634
▁bosnia	-11.4634
▁dictate	-11.4634
▁friedman	-11.4634
庆祝	-11.4634
政坛	-11.4634
绝非易事	-11.4634
▁taught	-11.4634
始终	-11.4634
诉求	-11.4634
微妙	-11.4634
直觉	-11.4634
▁distrust	-11.4634
极右翼	-11.4634
▁boundaries	-11.4634
▁grasp	-11.4634
就是明证	-11.4635
接管	-11.4635
▁barrel	-11.4635
街头	-11.4635
论证	-11.4635
▁leap	-11.4635
解放军	-11.4635
老牌	-11.4635
▁hide	-11.4635
英语	-11.4635
不良贷款	-11.4635
是我们	-11.4636
加纳	-11.4638
自由贸易协定	-11.4638
子女	-11.4638
▁那	-11.4638
低收入国家	-11.464
上演	-11.464
阿尔	-11.464
要在	-11.4641
▁justified	-11.4641
pping	-11.4642
增进	-11.4642
剑桥	-11.4643
达成协议	-11.4644
▁relied	-11.4644
▁vi	-11.4646
▁undermines	-11.4646
fifth	-11.4647
1992	-11.4647
management	-11.4647
▁interpret	-11.4648
▁style	-11.4649
friendly	-11.465
教育程度	-11.4651
▁coin	-11.4651
同盟	-11.4651
还有一个	-11.4654
二十	-11.4654
▁ballot	-11.4655
的全部	-11.4655
管理的	-11.4657
▁lifted	-11.4657
的方针	-11.466
▁clash	-11.466
公共支出	-11.4661
注意力	-11.4662
▁大多数	-11.4663
经济繁荣	-11.4666
底层	-11.4666
▁可	-11.4669
▁drain	-11.4671
▁repay	-11.4674
有益	-11.4675
▁delayed	-11.4676
▁cool	-11.4676
多次	-11.4677
在所有	-11.4678
▁excessively	-11.4687
实在	-11.4687
他信	-11.4687
可怕	-11.4687
自治	-11.4687
对方	-11.4688
宗	-11.4688
无能	-11.4688
受益者	-11.4693
政府应该	-11.4696
国王	-11.4701
会造成	-11.4701
在德国	-11.4701
▁oceans	-11.4703
motion	-11.4704
的非洲	-11.4705
cat	-11.4708
这一切	-11.4708
发展趋势	-11.4711
将带来	-11.4712
▁普京	-11.4714
宽松	-11.4719
地将	-11.4721
生产的	-11.4721
▁ecosystem	-11.4721
话题	-11.4723
的腐败	-11.4723
的相关	-11.4724
因为他	-11.4725
▁respected	-11.4729
▁flag	-11.4731
竞争性	-11.4731
的保护	-11.4733
成为世界	-11.4733
rov	-11.4734
▁mon	-11.4736
too	-11.4739
不可避免的	-11.4739
和日本	-11.4741
乎	-11.4742
▁vary	-11.4746
应付	-11.475
和非	-11.4753
环境保护	-11.4756
▁100,000	-11.4757
▁spreading	-11.4766
前提	-11.4766
的美国人	-11.4767
选举结果	-11.4769
在当前	-11.4771
▁nas	-11.4775
的失业率	-11.4775
益	-11.4775
物理	-11.4776
▁buildings	-11.4778
放弃了	-11.478
大于	-11.4781
而后	-11.4782
和就业	-11.4782
等方面	-11.4784
安全问题	-11.4786
▁deploy	-11.4787
虚	-11.4791
因为在	-11.4792
需要一个	-11.4792
人选	-11.4793
▁mini	-11.4794
和商业	-11.4798
▁forge	-11.4799
▁indicates	-11.4803
▁floods	-11.4803
国家间	-11.4805
危机爆发	-11.4805
的所作所为	-11.4807
激烈的	-11.481
演	-11.4814
的日子	-11.4815
各州	-11.4816
▁suspect	-11.4817
扣	-11.4818
大幅增加	-11.4819
经济转型	-11.4823
无意	-11.4824
有用	-11.4824
ue	-11.4828
的决心	-11.4829
▁在经历了	-11.4829
影	-11.483
的迹象	-11.483
▁peripher	-11.4831
子孙后代	-11.4831
朗	-11.4832
筹集	-11.4833
婚	-11.4833
▁quest	-11.4834
烧	-11.4834
餐	-11.4834
丝绸之路	-11.4834
吹	-11.4834
熊	-11.4834
▁advertising	-11.4834
▁contagion	-11.4834
▁fraud	-11.4834
▁injustice	-11.4834
▁paradigm	-11.4834
▁schedule	-11.4834
▁vienna	-11.4834
▁yellen	-11.4834
▁excuse	-11.4834
▁entities	-11.4834
号召	-11.4834
坚挺	-11.4834
炸弹	-11.4834
▁tiny	-11.4834
斯里兰卡	-11.4834
▁keen	-11.4834
束缚	-11.4834
东道国	-11.4834
防卫	-11.4834
▁immunization	-11.4834
致死	-11.4834
▁unpopular	-11.4834
回避	-11.4834
凝聚力	-11.4834
职责	-11.4835
▁reconsider	-11.4835
▁occurring	-11.4835
▁timing	-11.4835
受损	-11.4835
▁deployment	-11.4835
去杠杆化	-11.4835
▁harness	-11.4835
随机	-11.4835
▁disruptive	-11.4835
cul	-11.4835
星期	-11.4836
设法	-11.4836
巨量	-11.4836
借钱	-11.4836
药方	-11.4836
▁isolated	-11.4837
耐药性	-11.4837
总结	-11.4837
联系起来	-11.4837
分析师	-11.4838
▁disappointing	-11.4838
▁fairness	-11.4839
确立	-11.484
解释了	-11.484
▁accumulated	-11.484
身处	-11.4842
之道	-11.4842
毫无意义	-11.4843
▁ensu	-11.4844
让他	-11.4844
小心	-11.4845
平息	-11.4846
更能	-11.4847
▁medicines	-11.4849
tat	-11.4851
control	-11.4851
无法实现	-11.4851
▁clinical	-11.4852
的外交政策	-11.4852
起着	-11.4853
农村地区	-11.4853
zero	-11.4853
导致的	-11.4854
▁swift	-11.4855
face	-11.4856
极少	-11.4857
不变	-11.4857
▁scenarios	-11.4857
有两个	-11.4858
利用其	-11.4861
低估了	-11.4861
▁insisted	-11.4862
▁benefiting	-11.4863
38	-11.4863
公司和	-11.4865
▁1945	-11.4865
mgi	-11.4866
▁alarming	-11.4868
▁fu	-11.4869
进入了	-11.4869
中国正在	-11.487
移	-11.4871
dar	-11.4873
基础设施项目	-11.4876
的形象	-11.4876
基础设施和	-11.4877
将这些	-11.4882
几十年来	-11.4885
alan	-11.4885
▁ju	-11.4886
负责任的	-11.4886
you	-11.4886
▁difficulty	-11.4886
扩大了	-11.4887
有许多	-11.4887
这个数字	-11.4887
鲜有	-11.4891
迎来	-11.4891
不断增加	-11.4894
▁warnings	-11.4895
▁preferences	-11.4897
就像是	-11.4899
其余	-11.4902
金融市场的	-11.4903
可信的	-11.4904
▁james	-11.4905
抱	-11.4907
是不是	-11.4907
让我	-11.491
ory	-11.4911
肯	-11.4911
他将	-11.4911
或许是	-11.4912
▁du	-11.4913
▁exceeding	-11.4915
副总统	-11.4917
▁2010.	-11.4919
段	-11.492
被人	-11.4921
▁film	-11.4924
▁hike	-11.4925
taking	-11.4928
的角度	-11.4929
债务人	-11.4931
传统上	-11.4931
长远	-11.4932
▁notable	-11.4935
▁winners	-11.4937
的具体	-11.4937
惊人的	-11.4939
首脑	-11.494
在这些	-11.4942
这一政策	-11.4946
创造性	-11.4946
发布了	-11.4949
上任	-11.495
的支持率	-11.495
▁predecessors	-11.4951
ort	-11.4965
ets	-11.4968
ey	-11.497
的衰退	-11.4971
不可避免地	-11.4972
▁socially	-11.4974
试图通过	-11.4975
较少	-11.4975
▁然后	-11.4979
过分	-11.4988
▁1994	-11.499
疑	-11.4991
和他的	-11.4993
之前的	-11.5002
常见	-11.501
▁乌克兰	-11.5012
▁ignor	-11.5012
参	-11.5013
边缘化	-11.5014
▁随后	-11.5015
遗	-11.5016
角度看	-11.5019
▁select	-11.5021
▁accomplish	-11.5021
▁dismiss	-11.5021
▁jump	-11.5021
暗	-11.5023
轻易	-11.5025
▁admitted	-11.5032
▁chose	-11.5035
园	-11.5035
射	-11.5035
民主和	-11.5036
笑	-11.5036
的直接	-11.5036
胜出	-11.5036
逆	-11.5037
宝	-11.5037
继	-11.5038
巴拉克	-11.5038
拔	-11.5038
汉	-11.5038
犹豫	-11.5038
▁ambassador	-11.5038
▁bureaucrats	-11.5038
▁climb	-11.5038
▁cognitive	-11.5038
▁cohesion	-11.5038
▁exemplifie	-11.5038
▁genome	-11.5038
▁guidance	-11.5038
▁impunity	-11.5038
▁nobody	-11.5038
▁significance	-11.5038
▁stabilizing	-11.5038
▁upheaval	-11.5038
凸显出	-11.5038
▁upgrading	-11.5038
奏效	-11.5038
稳健	-11.5038
▁presumably	-11.5038
稳固	-11.5038
采纳	-11.5038
▁但他	-11.5038
施压	-11.5038
▁twin	-11.5039
雄心	-11.5039
▁countless	-11.5039
回顾	-11.5039
替代品	-11.5039
▁pois	-11.5039
▁brave	-11.5039
▁pride	-11.504
后续	-11.504
做到这一点	-11.504
极端分子	-11.504
▁mdgs	-11.504
节目	-11.5041
▁classic	-11.5041
▁profitable	-11.5041
诚	-11.5041
体面	-11.5042
不堪	-11.5042
▁fees	-11.5042
▁breakup	-11.5042
▁undertaken	-11.5043
▁concerted	-11.5043
▁entrenched	-11.5044
治国	-11.5044
▁oversee	-11.5045
提及	-11.5046
▁baby	-11.5047
追随者	-11.5047
san	-11.5047
▁downside	-11.5048
▁acquired	-11.5049
▁corner	-11.5049
略有	-11.5049
界定	-11.505
微小	-11.505
越多	-11.5051
▁surrounding	-11.5055
日的	-11.5055
▁discourage	-11.5056
但美国	-11.5056
同样也	-11.5058
▁accelerated	-11.5059
指向	-11.5059
有毒	-11.506
added	-11.5061
疾病的	-11.5061
引发的	-11.5061
▁deadly	-11.5062
german	-11.5062
some	-11.5062
▁solved	-11.5064
▁另外	-11.5064
▁midst	-11.5065
耗	-11.5066
funded	-11.5068
worthy	-11.5068
移民问题	-11.5069
应对措施	-11.5071
ari	-11.5071
▁van	-11.5073
▁aggressively	-11.5073
▁losers	-11.5073
如何应对	-11.5076
实际利率	-11.5076
▁hearing	-11.5076
强劲的	-11.5076
平等的	-11.5077
上一次	-11.5077
▁prevailed	-11.5078
英国经济	-11.5078
比尔	-11.5078
将如何	-11.508
▁throw	-11.508
启动了	-11.508
强制性	-11.5083
▁blocked	-11.5084
▁promoted	-11.5085
▁2012.	-11.5088
▁normally	-11.5089
正面	-11.5091
外交部长	-11.5094
高速增长	-11.5099
挑战是	-11.5102
的第一步	-11.5102
人力	-11.5103
▁韩国	-11.5104
交给	-11.5107
无比	-11.5108
▁inspiration	-11.5109
与西方	-11.5113
地点	-11.5113
可能带来	-11.5115
▁trained	-11.5115
规则的	-11.5117
声音	-11.5121
hard	-11.5121
欧元区成员国	-11.5122
布什总统	-11.5126
中国企业	-11.5126
也很	-11.5127
大衰退	-11.5128
tier	-11.5128
的人都	-11.5132
▁investigation	-11.5132
▁jurisdiction	-11.5133
▁professor	-11.5133
▁vehicle	-11.5134
▁connection	-11.5135
▁debtors	-11.5137
都已经	-11.5137
▁pivot	-11.5138
的领导下	-11.5139
现实主义	-11.5141
1.6	-11.5142
ically	-11.5146
示威者	-11.5147
▁grip	-11.515
愿	-11.5153
pur	-11.5154
▁$50	-11.5156
rn	-11.5159
▁ver	-11.5161
▁1996	-11.5162
社会和政治	-11.5171
植物	-11.5172
看待	-11.5173
海岸	-11.5174
不能再	-11.5175
的事	-11.5177
积	-11.5183
▁booming	-11.5183
德国和	-11.5184
的身份	-11.5185
▁1995	-11.5186
领导人必须	-11.5186
800	-11.5187
▁ram	-11.5188
▁毫不奇怪	-11.519
限制了	-11.519
▁cn	-11.519
可以被	-11.5192
第四	-11.5193
我们已经	-11.5193
方法是	-11.5195
air	-11.5197
的边缘	-11.5198
注	-11.5198
并不一定	-11.5202
核能	-11.5206
政策利率	-11.5209
0.2	-11.521
▁remov	-11.5211
在伊拉克	-11.5211
和支持	-11.5213
都知道	-11.5213
▁mount	-11.5218
规	-11.5221
汇	-11.5226
更糟	-11.5226
▁若	-11.5227
▁appoint	-11.5229
标志	-11.5234
在全世界	-11.5235
▁approaching	-11.5235
逐	-11.5235
民间	-11.5235
不乏	-11.5239
必不可少	-11.5239
的强大	-11.5239
▁rivers	-11.524
阿拉伯人	-11.5241
▁dispos	-11.5242
赢	-11.5242
环	-11.5242
觉	-11.5243
瑞	-11.5245
审视	-11.5245
委	-11.5245
管辖	-11.5246
春	-11.5246
黄	-11.5246
▁tragic	-11.5246
弄	-11.5246
脸	-11.5246
江	-11.5246
驾驶	-11.5246
巴黎气候协定	-11.5246
最后一个	-11.5246
一小部分	-11.5246
打交道	-11.5246
骚乱	-11.5246
▁censorship	-11.5246
▁chicago	-11.5246
▁cumulative	-11.5246
▁disregard	-11.5246
▁hidden	-11.5246
▁personnel	-11.5246
▁pervasive	-11.5246
▁polio	-11.5246
▁reconstruction	-11.5246
▁scene	-11.5246
▁wife	-11.5246
▁ahmadinejad	-11.5246
▁district	-11.5246
▁tumor	-11.5246
雪	-11.5246
▁lanka	-11.5246
无关紧要	-11.5246
贿赂	-11.5246
恶性循环	-11.5246
世界卫生组织	-11.5246
机械	-11.5247
▁connectivity	-11.5247
▁cloud	-11.5247
发展中经济体	-11.5247
营养不良	-11.5247
显现	-11.5247
▁automatically	-11.5247
代替	-11.5247
固然	-11.5247
草案	-11.5247
▁interview	-11.5247
软弱	-11.5247
▁offshore	-11.5247
抵达	-11.5247
故意	-11.5247
营造	-11.5247
配额	-11.5247
▁rebound	-11.5247
胜任	-11.5247
哲学家	-11.5248
总裁	-11.5248
股本	-11.5248
增税	-11.5248
▁replacement	-11.5248
天然	-11.5248
情感	-11.5249
他是	-11.525
在法国	-11.525
亚太地区	-11.525
▁endorsed	-11.5251
▁socio	-11.5251
包含了	-11.5251
有序	-11.5251
42	-11.5252
▁contend	-11.5253
▁mega	-11.5253
房子	-11.5253
▁soared	-11.5254
的生产	-11.5254
▁但当	-11.5254
货币操纵	-11.5255
ik	-11.5257
▁farc	-11.5257
▁detailed	-11.5258
让它	-11.5259
接着	-11.5259
资本管制	-11.5259
▁behalf	-11.526
海地	-11.526
▁vis	-11.526
▁liberation	-11.526
全球性的	-11.5262
▁camps	-11.5262
日本人	-11.5262
▁excluded	-11.5262
情形	-11.5263
美国将	-11.5265
杀死	-11.5267
▁norm	-11.5268
清除	-11.5269
oda	-11.5269
有时候	-11.5269
北朝鲜	-11.5272
▁welcomed	-11.5272
遥远	-11.5272
无法解决	-11.5273
▁recessions	-11.5275
储存	-11.5275
周年	-11.5275
树立	-11.5276
▁enjoyed	-11.5279
此时	-11.528
▁manufacturers	-11.5282
的出现	-11.5283
▁26	-11.5283
nard	-11.5284
经理	-11.5284
和英国	-11.5289
▁orderly	-11.5289
更重要的是	-11.529
的意识形态	-11.5291
这种做法	-11.5292
▁disputed	-11.5292
和平协议	-11.5295
▁nicola	-11.5296
与以色列	-11.5298
兴起	-11.5298
dumping	-11.5299
▁sad	-11.53
▁damaged	-11.53
仍然存在	-11.53
可以将	-11.5301
我们就	-11.5301
白俄罗斯	-11.5304
立法者	-11.5305
更愿意	-11.5311
种族主义	-11.5311
发生变化	-11.5314
68	-11.5315
▁construct	-11.5316
大批	-11.5317
不力	-11.532
收入不平等	-11.5321
最终会	-11.5327
签署了	-11.5334
controlled	-11.5335
▁judge	-11.5338
▁origin	-11.534
▁breakthrough	-11.5346
致命的	-11.5346
▁adviser	-11.5347
▁application	-11.5347
▁parent	-11.5349
▁dozens	-11.5349
深远	-11.5351
▁drones	-11.5351
▁killer	-11.5353
维持在	-11.5353
这部	-11.5358
中最	-11.5361
▁forever	-11.5362
甚至可能	-11.5363
有一点	-11.5364
▁11%	-11.5364
▁marks	-11.5371
▁dividends	-11.5373
nce	-11.5374
世纪初	-11.5375
▁此后	-11.5377
mit	-11.5378
▁render	-11.5378
南美	-11.5379
▁engineers	-11.5383
▁cop	-11.5385
▁phones	-11.5385
▁1993	-11.5385
▁droughts	-11.5387
aged	-11.5389
这可能	-11.5395
较高的	-11.5396
行列	-11.5397
对这一	-11.5397
cds	-11.54
笔	-11.5402
set	-11.5402
这并不是	-11.5403
政府机构	-11.5405
意图	-11.5414
国内外	-11.5414
经济和金融	-11.5418
贡献了	-11.5421
力量的	-11.5421
1.1	-11.5428
的机制	-11.5429
这表明	-11.5429
▁conservation	-11.5429
▁人类	-11.5429
▁bargain	-11.5431
▁shrink	-11.5431
▁rebuild	-11.5431
20,000	-11.5436
▁provinces	-11.5436
稳	-11.5437
建成	-11.5437
▁experiments	-11.5438
▁peer	-11.544
▁enact	-11.5442
▁complain	-11.5442
反移民	-11.5442
ncy	-11.5442
▁logical	-11.5448
任何一个	-11.5449
▁arrive	-11.5451
▁而中国	-11.5452
抓	-11.5452
昂贵的	-11.5453
祖	-11.5454
▁第一	-11.5455
▁seed	-11.5455
▁images	-11.5456
有多少	-11.5456
依	-11.5456
▁consolidate	-11.5457
默	-11.5458
▁superior	-11.5458
谷	-11.5458
炮	-11.5459
缘	-11.5459
▁municipal	-11.5459
戒	-11.5459
临床	-11.5459
欺骗	-11.5459
贪婪	-11.5459
随着时间的推移	-11.5459
▁automobile	-11.5459
▁dubious	-11.5459
▁explore	-11.5459
▁fertilizer	-11.5459
▁fluctuations	-11.5459
▁ghana	-11.5459
▁illusion	-11.5459
▁kazakhstan	-11.5459
▁penalty	-11.5459
▁possibilities	-11.5459
▁provincial	-11.5459
▁racial	-11.5459
▁reluctance	-11.5459
▁royal	-11.5459
▁sluggish	-11.5459
▁suicide	-11.5459
▁troubling	-11.5459
▁unclear	-11.5459
视而不见	-11.5459
讨价还价	-11.5459
骨	-11.5459
▁spike	-11.5459
暂停	-11.5459
野蛮	-11.5459
▁darfur	-11.5459
比利时	-11.5459
镜	-11.5459
▁misleading	-11.5459
▁urgency	-11.5459
▁brink	-11.5459
寡头	-11.5459
▁steep	-11.5459
血液	-11.5459
▁misguided	-11.5459
▁divergence	-11.546
赞同	-11.546
护理	-11.546
失控	-11.546
▁feet	-11.546
制止	-11.546
▁tourism	-11.546
戈尔	-11.546
饮食	-11.546
工程师	-11.546
▁gravity	-11.5461
▁comfortable	-11.5461
未知	-11.5461
▁overcapacity	-11.5461
无情	-11.5461
意大利和西班牙	-11.5461
生计	-11.5462
▁boj	-11.5462
▁box	-11.5462
风格	-11.5462
▁prisoners	-11.5462
▁savers	-11.5462
升温	-11.5462
数额	-11.5463
取得进展	-11.5463
新鲜	-11.5463
资本账户	-11.5463
政治家们	-11.5464
并对	-11.5465
人来说	-11.5466
▁alive	-11.5466
elect	-11.5467
▁deliberately	-11.5467
rr	-11.5468
年轻的	-11.5468
的吸引力	-11.5468
▁但对	-11.5468
级别	-11.5469
正处于	-11.5469
▁hole	-11.5471
▁paradox	-11.5473
▁theoretical	-11.5474
压力测试	-11.5474
毁灭性	-11.5475
标准的	-11.5475
▁condemned	-11.5475
很少有人	-11.5477
两年前	-11.5477
央行行长	-11.5477
或许会	-11.5479
▁overwhelmingly	-11.548
并无	-11.5482
很显然	-11.5483
联合国大会	-11.5484
世界领导人	-11.5485
军事干预	-11.5486
河流	-11.5487
social	-11.5491
▁assessments	-11.5492
限额	-11.5493
road	-11.5494
▁recommendations	-11.5495
退出欧盟	-11.5497
▁plus	-11.5498
ologist	-11.55
wage	-11.55
▁illiberal	-11.5502
的债券	-11.5502
▁seas	-11.5504
在经济上	-11.5508
▁suppliers	-11.5509
bb	-11.5511
▁representation	-11.5511
获益	-11.5512
保持在	-11.5512
在经历了	-11.5513
的空间	-11.5515
最近在	-11.5517
民族主义者	-11.5518
首要	-11.5519
▁richard	-11.5521
完全是	-11.5522
▁covered	-11.5526
▁passing	-11.5527
可能出现	-11.5528
▁determin	-11.5529
增长速度	-11.5531
奥巴马的	-11.5535
这场战争	-11.5536
不知	-11.5537
极权主义	-11.5544
don	-11.5544
神经	-11.5545
的举动	-11.5545
严峻的	-11.5546
4.5	-11.5547
小布什	-11.5548
▁许多人	-11.5549
44	-11.5549
▁earned	-11.5551
分之一	-11.5555
▁可以肯定	-11.5559
各自的	-11.556
就开始	-11.5563
▁sees	-11.5567
▁lender	-11.5569
▁reconcile	-11.5576
该协议	-11.5577
追	-11.5579
的事件	-11.5585
居住在	-11.5591
49	-11.5592
贫困人口	-11.5592
的小	-11.5593
的一系列	-11.5594
的最终	-11.5594
▁assumes	-11.5596
▁第四	-11.5596
▁这些国家	-11.5596
成年人	-11.5598
大门	-11.5599
这套	-11.5599
▁expert	-11.56
的年度	-11.5602
七年	-11.5602
你的	-11.5604
在该地区	-11.5604
这方面	-11.5604
可见	-11.5606
的集体	-11.5609
ski	-11.5612
vin	-11.5613
▁emulate	-11.5614
忘	-11.5617
麦	-11.5618
▁22	-11.5619
are	-11.5622
▁degrees	-11.5623
▁如果不	-11.5626
这不是	-11.5626
▁protections	-11.5626
世界上最	-11.5627
▁declar	-11.5628
马克	-11.5629
一年前	-11.5629
也对	-11.5631
往往是	-11.5633
even	-11.5634
▁rivals	-11.5638
正常化	-11.5639
能源需求	-11.5645
注意到	-11.5648
同时也是	-11.565
▁某些	-11.5651
▁asians	-11.5651
教训是	-11.5652
十年的	-11.5656
舞台	-11.5656
▁uphold	-11.5657
迈出	-11.5663
认为自己	-11.5663
找	-11.5664
草	-11.5665
▁exclusive	-11.5665
无效	-11.5666
造成严重	-11.5666
沿海	-11.5667
使他们	-11.5667
市场准入	-11.5667
▁semi	-11.5669
正统	-11.5673
的愤怒	-11.5674
亡	-11.5674
▁多年来	-11.5675
阻	-11.5675
烟	-11.5675
哲学	-11.5676
首席	-11.5676
混	-11.5676
牙	-11.5676
菌	-11.5676
ov	-11.5676
吸取	-11.5676
吓	-11.5677
博弈	-11.5677
▁简而言之	-11.5677
▁approximate	-11.5677
▁belarus	-11.5677
▁divorce	-11.5677
▁embracing	-11.5677
▁irresponsible	-11.5677
▁journey	-11.5677
▁kurdis	-11.5677
▁maneuver	-11.5677
▁munich	-11.5677
▁philosopher	-11.5677
▁phrase	-11.5677
▁protracted	-11.5677
得益于	-11.5677
▁brexiteers	-11.5677
▁polish	-11.5677
▁praise	-11.5677
欺诈	-11.5677
▁swiss	-11.5677
波斯尼亚	-11.5677
舍	-11.5677
节奏	-11.5677
阐述	-11.5677
准则	-11.5677
摩	-11.5677
硅谷	-11.5677
甲烷	-11.5677
▁complaints	-11.5677
治愈	-11.5677
阅读	-11.5677
挣扎	-11.5677
雅典	-11.5677
从长期看	-11.5677
资料	-11.5677
迎接	-11.5677
妻子	-11.5677
礼物	-11.5677
进攻	-11.5677
整整	-11.5677
本币	-11.5677
▁grim	-11.5677
▁echo	-11.5677
生物燃料	-11.5677
定居点	-11.5678
背景下	-11.5678
假定	-11.5678
▁liability	-11.5678
家园	-11.5678
▁color	-11.5678
欧美	-11.5678
▁bullet	-11.5678
文学	-11.5678
儿子	-11.5679
▁slump	-11.5679
▁conviction	-11.5679
▁impoverished	-11.5679
各类	-11.5679
▁refusal	-11.5679
持续下去	-11.5679
年代中期	-11.5679
帝国主义	-11.568
北非	-11.568
论点	-11.5681
▁opt	-11.5682
杀害	-11.5682
▁healthier	-11.5682
英里	-11.5682
尖锐	-11.5682
▁unfold	-11.5682
全力	-11.5683
私有	-11.5683
印度洋	-11.5683
欧盟成员资格	-11.5683
▁portion	-11.5684
难民营	-11.5684
过时	-11.5684
缺失	-11.5685
在当今	-11.5686
宏大	-11.5686
实证	-11.5687
需要时间	-11.5687
夺走	-11.5688
就可能	-11.569
罪犯	-11.5691
▁stabilization	-11.5691
▁reactor	-11.5692
▁accommodate	-11.5693
基础上	-11.5694
暴力和	-11.5694
▁techniques	-11.5698
jo	-11.5698
而其	-11.5699
▁silicon	-11.57
也为	-11.5702
▁algorithms	-11.5703
▁handle	-11.5703
▁grid	-11.5704
▁stark	-11.5705
工作人员	-11.5707
整个欧洲	-11.5709
▁suffers	-11.571
▁diminishing	-11.571
ttip	-11.571
赖	-11.5711
john	-11.5712
specific	-11.5712
prime	-11.5713
那么它	-11.5713
供应商	-11.5715
近来	-11.5716
locked	-11.5719
▁median	-11.5719
的背景下	-11.5722
▁facilitated	-11.5724
当选总统	-11.5725
到期	-11.5729
吨	-11.5729
ect	-11.573
限度	-11.573
事实证明	-11.5731
▁efficiently	-11.5733
▁pakistani	-11.5734
印度和	-11.5735
现实是	-11.5738
的全面	-11.5738
看作	-11.5742
▁highlight	-11.5745
通过了	-11.5747
▁vik	-11.5748
▁visited	-11.575
战略性	-11.5752
冲突和	-11.5753
▁solving	-11.5754
将把	-11.5754
伟大的	-11.5755
经济增长率	-11.5761
▁cited	-11.5762
都是如此	-11.5763
选出	-11.5765
▁nets	-11.5768
这只是	-11.5769
33	-11.577
的意见	-11.5771
▁interconnected	-11.5776
▁describe	-11.5779
经济实力	-11.578
技术创新	-11.5782
▁senator	-11.5785
止	-11.5785
腐败的	-11.5786
已经从	-11.5787
▁trick	-11.5788
四十年	-11.5788
难度	-11.5788
人心	-11.5793
的一切	-11.5795
ilo	-11.5797
的解释	-11.5798
兴	-11.58
▁无论是	-11.5801
正当	-11.5801
▁答案	-11.5804
会成为	-11.5807
大胆的	-11.5809
为目标	-11.5811
正在发生	-11.5813
国际机构	-11.5813
▁winner	-11.5818
它们可以	-11.582
▁processing	-11.582
ld	-11.5822
最有可能	-11.5824
因为其	-11.5825
▁wary	-11.5826
▁面对	-11.5826
coupled	-11.5826
重申	-11.5827
争	-11.5829
统	-11.5829
▁1973	-11.5835
▁depending	-11.5835
▁giants	-11.5837
▁sale	-11.584
▁dimension	-11.5842
á	-11.5842
好事	-11.5842
欧盟机构	-11.5845
rk	-11.5847
展现	-11.5848
inflicted	-11.5849
弹	-11.585
▁defin	-11.5851
政治领袖	-11.5852
句	-11.5852
令人担忧	-11.5852
的官方	-11.5852
▁gather	-11.5853
六年	-11.5855
grade	-11.5856
ose	-11.5857
▁这对	-11.5858
总人口	-11.5866
预料	-11.5867
应对气候变化	-11.5869
▁intensify	-11.587
公布	-11.5871
那样的	-11.5873
之内	-11.5874
提高生产率	-11.5876
▁tested	-11.5877
一战	-11.5877
承诺要	-11.5877
▁prohibit	-11.5878
投资银行	-11.5878
社	-11.588
fired	-11.588
▁recommend	-11.588
测	-11.5882
是他们	-11.5885
ob	-11.5887
▁eventual	-11.5887
富裕的	-11.5888
总数	-11.5889
▁但这种	-11.5889
▁alleged	-11.5889
泥	-11.589
▁postpone	-11.589
遇	-11.5892
▁sen	-11.5893
巴尔干	-11.5893
权益	-11.5893
▁shinz	-11.5895
成员资格	-11.5896
外围国	-11.5897
海上	-11.5898
检	-11.5898
毕业	-11.5898
燃烧	-11.5898
蛋	-11.5898
杂	-11.5898
厚	-11.5898
指挥	-11.5899
无知	-11.5899
俄罗斯总统普京	-11.5899
轰炸	-11.5899
波士顿	-11.5899
寻求庇护者	-11.5899
等同于	-11.5899
召集	-11.5899
斯大林	-11.5899
▁abrupt	-11.5899
忠诚	-11.5899
竞赛	-11.5899
michael	-11.5899
▁arrival	-11.5899
▁bacteria	-11.5899
▁breast	-11.5899
▁clause	-11.5899
▁continuous	-11.5899
▁himalaya	-11.5899
▁premium	-11.5899
▁reassure	-11.5899
▁recipe	-11.5899
▁scrutiny	-11.5899
▁stalemate	-11.5899
▁tuberculosis	-11.5899
▁unnecessary	-11.5899
铜	-11.5899
鲁莽	-11.5899
印度尼西亚	-11.5899
桑德斯	-11.5899
▁dissent	-11.5899
居高不下	-11.5899
▁diplomats	-11.5899
▁rice	-11.5899
摩尔多瓦	-11.5899
枯竭	-11.5899
▁mountain	-11.5899
决裂	-11.5899
▁minimal	-11.5899
▁skeptical	-11.5899
赌注	-11.5899
颇具	-11.5899
经典	-11.5899
累计	-11.5899
▁clout	-11.5899
经常项目盈余	-11.5899
协商	-11.5899
高等教育	-11.5899
洞见	-11.5899
从一开始就	-11.5899
互换	-11.5899
▁hostile	-11.5899
心态	-11.5899
哪种	-11.59
经济状况	-11.59
倒台	-11.59
反腐	-11.59
世界贸易组织	-11.59
划定	-11.59
▁miles	-11.59
▁terrible	-11.59
听起来	-11.5901
流血	-11.5901
▁tibetan	-11.5901
机场	-11.5901
▁acceptance	-11.5901
▁mainland	-11.5901
格局	-11.5902
记忆	-11.5902
▁plain	-11.5902
每次	-11.5902
▁mindset	-11.5902
已然	-11.5903
迈进	-11.5903
▁uprising	-11.5903
▁steer	-11.5904
和投资	-11.5904
尤为	-11.5904
及其他	-11.5904
最糟糕的	-11.5905
卡尔	-11.5906
代理人	-11.5906
等问题	-11.5906
工业革命	-11.5907
▁bloody	-11.5907
尤其如此	-11.5909
▁在此	-11.591
财政整合	-11.591
▁attraction	-11.5912
就是一个	-11.5912
被捕	-11.5915
上个月	-11.5917
的支持下	-11.5917
pre	-11.5918
▁而不是	-11.5919
的干预	-11.5921
甚至连	-11.5923
的普遍	-11.5925
▁2025	-11.5925
少数民族	-11.5928
演讲中	-11.5928
老年人	-11.5931
崛起的	-11.5931
的印象	-11.5932
的最高	-11.5932
水电	-11.5934
贸易和投资	-11.5935
7.5	-11.5936
accounted	-11.5937
房地产市场	-11.5938
robert	-11.594
political	-11.594
▁derivatives	-11.5944
▁通常	-11.5946
▁houses	-11.5946
▁flooding	-11.5947
常态	-11.5952
克斯	-11.5953
▁filled	-11.5956
做什么	-11.5957
债务国	-11.5958
留在欧盟	-11.5963
是一次	-11.5964
▁situations	-11.5964
美国国债	-11.5967
的诱惑	-11.5968
监管和	-11.5969
电厂	-11.597
的短期	-11.5972
能源价格	-11.5972
能产生	-11.5973
▁在英国	-11.5973
的活动	-11.5974
的痛苦	-11.5974
令人震惊	-11.5976
今日	-11.598
本月	-11.5982
▁surveys	-11.5982
只有一个	-11.5986
▁shocking	-11.5986
的攻击	-11.5987
外国投资者	-11.5988
▁柏林	-11.5988
原因在于	-11.599
不符合	-11.5991
▁heed	-11.5994
健康和	-11.5995
棘手	-11.5996
留给	-11.5996
▁11,	-11.5999
的两倍	-11.6001
▁favored	-11.6002
▁balkans	-11.6003
含义	-11.6007
光明	-11.6009
扩展	-11.601
在叙利亚	-11.6012
1.9	-11.6013
▁extremist	-11.6013
▁drone	-11.6014
之间的联系	-11.6014
了一场	-11.6015
上世纪	-11.6017
使之	-11.6018
并不意味着	-11.6019
▁expectation	-11.602
的统治	-11.602
基因组	-11.6021
▁hikes	-11.6024
▁newspapers	-11.6029
dge	-11.603
▁unite	-11.603
▁authors	-11.6032
▁boards	-11.6041
▁在一个	-11.6044
宣布了	-11.6044
让欧洲	-11.6051
▁overlook	-11.6051
付	-11.6052
▁strengths	-11.6052
▁coast	-11.6053
▁dear	-11.6054
开创	-11.6058
内政	-11.6058
缓	-11.606
▁founded	-11.6061
▁entails	-11.6062
的主要原因	-11.6065
▁ring	-11.6069
ben	-11.6076
的首要	-11.6077
head	-11.6085
艰难的	-11.6088
round	-11.6088
夏天	-11.6089
有价值的	-11.609
制造商	-11.6095
的第二个	-11.6096
▁har	-11.6098
较高	-11.61
越大	-11.6103
大数据	-11.6105
▁acted	-11.6105
民营企业	-11.6106
漫长	-11.6106
受影响	-11.6107
▁condemn	-11.6108
▁warrant	-11.6109
幅	-11.6109
市值	-11.6109
变暖	-11.6113
国际关系	-11.6115
hot	-11.6116
▁erode	-11.6118
▁urge	-11.6118
更广泛	-11.6118
沮丧	-11.6118
但这些	-11.6119
▁demonstrates	-11.6119
▁roles	-11.612
▁fines	-11.6122
凡	-11.6123
优秀	-11.6123
呈	-11.6125
攻	-11.6125
释	-11.6125
▁coordinate	-11.6125
什	-11.6126
凯	-11.6126
扫	-11.6126
穆	-11.6126
癌	-11.6126
珍	-11.6126
▁spill	-11.6126
ran	-11.6126
预示着	-11.6126
撰写	-11.6126
喊	-11.6126
渗透	-11.6126
硬着陆	-11.6126
cryptocurrencies	-11.6126
▁cholera	-11.6126
▁chávez	-11.6126
▁daughter	-11.6126
▁escalating	-11.6126
▁explosion	-11.6126
▁humiliation	-11.6126
▁indigenous	-11.6126
▁lehman	-11.6126
▁literally	-11.6126
▁methane	-11.6126
▁notwithstanding	-11.6126
▁obesity	-11.6126
▁subsidiaries	-11.6126
▁cliff	-11.6126
▁offense	-11.6126
大相径庭	-11.6126
敬	-11.6126
▁divert	-11.6126
安抚	-11.6126
旋	-11.6126
氛围	-11.6126
辛格	-11.6126
亚马逊	-11.6126
挫折	-11.6126
细菌	-11.6126
大西洋两岸	-11.6126
援引	-11.6126
▁plot	-11.6126
撤离	-11.6126
支配	-11.6126
单纯	-11.6126
▁haiti	-11.6126
变迁	-11.6126
引领	-11.6126
五分之一	-11.6127
▁cartel	-11.6127
▁deregulation	-11.6127
界限	-11.6127
▁skeptics	-11.6127
手术	-11.6127
短视	-11.6127
敌意	-11.6127
碳定价	-11.6127
抗击	-11.6127
何处	-11.6127
无限	-11.6127
▁minutes	-11.6127
▁located	-11.6127
债权国	-11.6127
平价	-11.6128
远高于	-11.6128
▁dedicated	-11.6128
版本	-11.6128
之争	-11.6128
潮流	-11.6128
▁destination	-11.6128
屠杀	-11.6128
命令	-11.6129
各项	-11.6129
指令	-11.6129
▁protesters	-11.613
▁consult	-11.6131
罪名	-11.6131
▁pe	-11.6131
▁crack	-11.6131
polar	-11.6131
克制	-11.6132
受益于	-11.6133
习近平主席	-11.6134
以及在	-11.6134
▁我们应该	-11.6135
▁incremental	-11.6139
▁functions	-11.6139
有所不同	-11.6139
▁allocated	-11.614
rt	-11.6141
刺激计划	-11.6145
▁constantly	-11.6146
大部	-11.6147
▁charged	-11.6149
▁attribute	-11.6151
应该被	-11.6152
▁beat	-11.6153
▁perfectly	-11.6154
选民们	-11.6155
境内	-11.6156
佛	-11.6158
▁intensity	-11.6159
ification	-11.616
▁scar	-11.616
的政党	-11.6161
1.3	-11.6161
的话说	-11.6167
中国官员	-11.6169
seekers	-11.6169
▁我们可以	-11.617
威胁要	-11.617
enhancing	-11.617
roll	-11.6171
school	-11.6171
insurance	-11.6172
supply	-11.6172
needed	-11.6173
human	-11.6174
长久	-11.6174
▁sciences	-11.6177
1950	-11.6178
据说	-11.618
▁restored	-11.6181
同时还	-11.6182
▁inaction	-11.6183
len	-11.6184
为美国	-11.6185
▁outsize	-11.6185
generation	-11.6187
医疗保险	-11.6188
钟	-11.6189
▁transforming	-11.619
iz	-11.619
▁instruct	-11.6193
▁在这种情况下	-11.6194
年会	-11.62
▁voluntary	-11.6203
是显而易见的	-11.6203
最主要的	-11.6204
第二个	-11.6207
当今的	-11.6207
而那些	-11.6215
而在于	-11.6215
的就业	-11.622
app	-11.622
先例	-11.6221
美国和中国	-11.6222
越来越多	-11.6223
多久	-11.6223
▁ride	-11.6224
独特	-11.6226
的榜样	-11.6226
的价值观	-11.6228
▁inherent	-11.6231
正在经历	-11.6232
长期增长	-11.6234
还有其他	-11.6235
▁pillars	-11.6235
雄心勃勃的	-11.6236
几天	-11.6237
选战	-11.6244
的发生	-11.6244
▁portfolio	-11.6245
▁indicator	-11.6246
▁customer	-11.6247
▁breakthroughs	-11.6248
▁mit	-11.6249
的进程	-11.6251
敢	-11.6253
的还有	-11.6255
确	-11.6261
扩大到	-11.6262
balancing	-11.6263
这两	-11.6265
▁12%	-11.6266
的群体	-11.6267
▁dozen	-11.627
pan	-11.627
▁75%	-11.6272
不作为	-11.6274
国界	-11.6275
▁sums	-11.6278
了近	-11.6279
所有国家都	-11.628
对政府	-11.628
的灾难	-11.6282
独特的	-11.6285
年前的	-11.6286
由美国	-11.6286
你可以	-11.6292
熟悉	-11.6292
ew	-11.6293
分钟	-11.6295
有过	-11.6295
淡	-11.6296
▁一种	-11.63
贫困国家	-11.6301
可不是	-11.6302
▁margins	-11.6303
law	-11.6306
为我们	-11.631
当作	-11.6312
▁enhancing	-11.6313
这些国家的	-11.6315
起了	-11.6316
民意	-11.6319
等到	-11.6325
还不	-11.6327
▁hate	-11.6329
想到	-11.6331
▁boosted	-11.6335
漫长的	-11.6336
nu	-11.6336
拆	-11.6338
急需的	-11.6341
和基础设施	-11.6346
误导	-11.6346
▁35	-11.6346
▁spectacular	-11.6347
▁virtual	-11.6347
无可	-11.6347
卫	-11.6349
▁organize	-11.635
永	-11.6352
十九世纪	-11.6352
会增加	-11.6355
辈	-11.6355
父	-11.6356
▁intra	-11.6357
▁extract	-11.6358
雄	-11.6358
要为	-11.6358
松	-11.6358
割	-11.6358
维也纳	-11.6358
阵	-11.6358
海平面	-11.6358
丁	-11.6358
透	-11.6358
村	-11.6358
宁	-11.6358
耶	-11.6358
▁outrage	-11.6358
灾害	-11.6358
▁francis	-11.6358
▁assertive	-11.6359
资本外逃	-11.6359
内贾德	-11.6359
门槛	-11.6359
颁布	-11.6359
胎	-11.6359
cigarette	-11.6359
▁affluent	-11.6359
▁bondholders	-11.6359
▁catholic	-11.6359
▁deputy	-11.6359
▁heritage	-11.6359
▁imminent	-11.6359
▁malaise	-11.6359
▁offensive	-11.6359
▁pretty	-11.6359
▁refrain	-11.6359
▁soccer	-11.6359
▁stalin	-11.6359
▁unpredictable	-11.6359
▁verdict	-11.6359
▁yanukovych	-11.6359
▁eurobonds	-11.6359
▁harvest	-11.6359
亚洲基础设施投资银行	-11.6359
旁	-11.6359
泽	-11.6359
哥斯达黎加	-11.6359
奋斗	-11.6359
艰苦	-11.6359
詹姆斯	-11.6359
冻结	-11.6359
绑架	-11.6359
拨款	-11.6359
▁brett	-11.6359
▁livestock	-11.6359
▁disclosure	-11.6359
▁benign	-11.6359
启发	-11.6359
▁displacement	-11.6359
缴纳	-11.6359
派遣	-11.6359
▁disturbing	-11.6359
▁infant	-11.6359
找不到	-11.6359
结算	-11.6359
▁superpower	-11.6359
转折点	-11.6359
收获	-11.6359
▁appointment	-11.636
▁unequal	-11.636
北爱尔兰	-11.636
反腐运动	-11.636
结局	-11.636
迪拜	-11.636
主管	-11.636
▁frustrated	-11.636
经费	-11.636
▁motor	-11.636
▁observation	-11.6361
明星	-11.6361
▁ratify	-11.6361
分类	-11.6361
花钱	-11.6362
仅为	-11.6362
的知识	-11.6364
▁partial	-11.6364
▁这对于	-11.6364
更深层次的	-11.6365
▁consultation	-11.6365
与此	-11.6365
▁industrialized	-11.6366
反恐战争	-11.6367
▁但即使	-11.6368
▁underestimated	-11.6368
优质	-11.6369
初级	-11.6371
以致	-11.6372
▁depressed	-11.6372
的调查	-11.6372
可疑	-11.6373
不公	-11.6373
▁unilaterally	-11.6374
fully	-11.6375
▁sink	-11.6377
携带	-11.6378
▁franco	-11.6378
人权和	-11.6378
▁records	-11.6379
▁disconnect	-11.638
脱离欧盟	-11.638
年均	-11.6382
▁partisan	-11.6383
中欧	-11.6384
的巨额	-11.6385
今年夏天	-11.6385
真空	-11.6385
遏制气候变化	-11.6387
▁negotiators	-11.6387
宏观经济政策	-11.6389
▁stems	-11.639
举行了	-11.639
成为全球	-11.639
无法在	-11.6394
这样一种	-11.6394
▁completed	-11.6397
将增加	-11.6398
某些人	-11.64
▁narratives	-11.64
恰当的	-11.64
全球经济的	-11.6401
▁infected	-11.6401
▁underpinning	-11.6402
▁permanently	-11.6403
esg	-11.6408
liberal	-11.6409
public	-11.6409
石油公司	-11.6411
board	-11.6411
英国将	-11.6412
▁demonstrations	-11.6414
▁flu	-11.6414
约有	-11.6415
▁ccp	-11.6417
主要由	-11.6418
▁trapped	-11.6419
一张	-11.6422
死亡人数	-11.6424
成分	-11.6427
多个国家	-11.6432
研究中心	-11.6443
生活方式	-11.6444
故	-11.6447
的情绪	-11.6449
奇迹	-11.6453
解决这一问题	-11.6455
▁tweet	-11.6455
对俄罗斯	-11.6456
的口号	-11.6458
英国选民	-11.6459
▁其实	-11.646
所取得的	-11.646
▁tolerance	-11.6462
states	-11.6463
▁compromises	-11.6465
▁stressed	-11.6466
▁counterpart	-11.6466
某些国家	-11.6466
▁strain	-11.6467
2019	-11.6471
▁100%	-11.6474
的成员	-11.6474
▁2011.	-11.6478
解决的问题	-11.6478
的快速	-11.6479
出色	-11.6479
先进	-11.6479
▁dictator	-11.6483
▁piece	-11.6483
▁pillar	-11.6484
首位	-11.6484
这使得	-11.6484
▁thousand	-11.6485
▁negotiation	-11.6485
▁interaction	-11.6485
有些人	-11.6486
▁connections	-11.6487
一百万	-11.649
发生过	-11.649
这一决定	-11.6492
这个世界	-11.6492
▁一方面	-11.6492
的伤害	-11.6493
避免了	-11.6494
其国内	-11.6495
不安全	-11.6495
库尔德	-11.6497
▁genes	-11.6498
政府已经	-11.6501
的分析	-11.6501
无从	-11.6503
找到了	-11.6505
截然不同的	-11.6505
仅限于	-11.6507
抱有	-11.651
出手	-11.6511
被允许	-11.6511
▁智利	-11.6513
▁nationalists	-11.6515
▁teams	-11.6517
late	-11.6519
就此	-11.6519
▁environmentally	-11.6522
相似的	-11.6525
的假设	-11.6531
做的	-11.6531
▁parliaments	-11.6534
▁towns	-11.6535
规则和	-11.6537
的焦点	-11.6538
▁abu	-11.6538
的期望	-11.654
发展中	-11.654
制造了	-11.6541
ash	-11.6543
官员们	-11.655
▁answers	-11.6551
美国和英国	-11.6551
才能实现	-11.6551
高质量	-11.6552
的政客	-11.6557
▁大约	-11.656
整个地区	-11.6561
来进行	-11.6562
当下	-11.6563
政府可以	-11.6563
cas	-11.6564
包括美国	-11.6568
▁checks	-11.6571
衍生品	-11.6571
中国股市	-11.6572
会发生	-11.6572
两位数	-11.6578
▁mik	-11.6578
▁unleash	-11.6579
我们能够	-11.658
▁rot	-11.6581
▁普林斯顿	-11.6583
load	-11.6584
▁arm	-11.6586
▁disadvantage	-11.6588
▁plunge	-11.6588
▁anticipate	-11.6588
因为美国	-11.6589
▁expose	-11.6589
▁首先是	-11.6591
孟加拉	-11.6593
没有得到	-11.6593
顶层	-11.6594
关键问题	-11.6594
考	-11.6595
▁minor	-11.6596
妇	-11.6596
▁entitle	-11.6596
盗	-11.6596
认为美国	-11.6596
劳动生产率	-11.6596
桶	-11.6596
▁hazard	-11.6596
浮动	-11.6596
检察官	-11.6597
蓬勃发展	-11.6597
血腥	-11.6597
雪上加霜	-11.6597
▁afflict	-11.6597
▁augment	-11.6597
▁disparities	-11.6597
▁erosion	-11.6597
▁grievances	-11.6597
▁identities	-11.6597
▁nightmare	-11.6597
▁opposing	-11.6597
▁overnight	-11.6597
▁peasant	-11.6597
▁peninsula	-11.6597
▁residential	-11.6597
▁sectarian	-11.6597
▁spark	-11.6597
▁stagnant	-11.6597
▁succumb	-11.6597
▁underground	-11.6597
▁vacuum	-11.6597
▁video	-11.6597
爱因斯坦	-11.6597
窄	-11.6597
贾	-11.6597
2008—2009	-11.6597
▁blue	-11.6597
钓鱼岛	-11.6597
▁boston	-11.6597
饥荒	-11.6597
掠夺	-11.6597
愈演愈烈	-11.6597
批判	-11.6597
摩擦	-11.6597
▁admission	-11.6597
罗姆人	-11.6597
不对称	-11.6597
避难	-11.6597
▁amazon	-11.6597
▁contact	-11.6597
▁具体而言	-11.6597
经常账户	-11.6597
增速	-11.6597
罚款	-11.6597
储户	-11.6597
约翰逊	-11.6597
极限	-11.6597
▁proposition	-11.6597
海域	-11.6597
坏消息	-11.6597
▁gotten	-11.6597
▁consent	-11.6597
一贯	-11.6597
▁fought	-11.6597
▁entitlement	-11.6597
▁fatal	-11.6598
▁journalism	-11.6598
▁capability	-11.6598
清理	-11.6598
国防部长	-11.6598
专业人士	-11.6598
顺利	-11.6598
最小化	-11.6598
场合	-11.6598
▁winter	-11.6599
存量	-11.6599
战场	-11.6599
prudential	-11.6599
政策制定者们	-11.6599
▁prohibition	-11.66
世行	-11.66
对美国的	-11.66
额度	-11.66
▁disposal	-11.66
急于	-11.66
▁strategically	-11.6602
▁irony	-11.6602
integrating	-11.6604
评论家	-11.6604
更小	-11.6604
▁warren	-11.6605
物价稳定	-11.6606
▁euros	-11.6607
普通民众	-11.6608
1986	-11.6608
任何时候	-11.6608
这导致	-11.6609
集中于	-11.661
▁prop	-11.6611
史上	-11.6612
包装	-11.6613
▁第一个	-11.6613
发表了	-11.6614
有用的	-11.6614
的必要	-11.6616
描绘	-11.6616
基础设施建设	-11.6617
▁dismissed	-11.6617
▁card	-11.6618
黑人	-11.6618
plo	-11.6618
有一种	-11.6618
▁近几年来	-11.6618
▁tpp	-11.662
▁anchor	-11.6622
▁indefinitely	-11.6624
医疗体系	-11.6624
拉低	-11.6626
▁autonomous	-11.6627
来自中国	-11.6627
半数	-11.6627
问题在于	-11.6629
▁cry	-11.6631
的信念	-11.6632
▁bombing	-11.6638
开发银行	-11.6638
▁hint	-11.6638
▁worsening	-11.6639
▁他说	-11.664
某种形式的	-11.6641
给美国	-11.6641
负面影响	-11.6642
▁lifting	-11.6643
之多	-11.6643
理由是	-11.6645
▁fires	-11.6645
旅游	-11.6647
▁shore	-11.665
保持着	-11.6651
resistant	-11.6652
圣战	-11.6652
1994	-11.6653
▁defeated	-11.6653
继续下去	-11.6654
纳德	-11.6655
▁inputs	-11.6659
设想	-11.6659
只在	-11.666
dise	-11.666
!"	-11.6662
实现这一点	-11.6665
早在	-11.6667
大部分人	-11.6667
bit	-11.6668
▁fostering	-11.6671
▁flat	-11.6672
同样重要	-11.6674
ncd	-11.6675
甚至可以	-11.6677
矿产	-11.6678
▁errors	-11.6678
bra	-11.6681
▁arabs	-11.6682
联合政府	-11.6683
仅占	-11.6684
▁document	-11.6684
充足	-11.6685
月以来	-11.6688
机构和	-11.6691
的联系	-11.6691
▁woods	-11.6694
就没有	-11.6694
▁16%	-11.6695
量化	-11.6695
恰当	-11.6696
▁30-	-11.6697
尽快	-11.6698
▁dar	-11.67
▁episodes	-11.67
错误地	-11.6701
意味着什么	-11.6701
▁tap	-11.6705
的世界中	-11.6708
最多的	-11.6708
▁hurricanes	-11.6708
也不可能	-11.6709
重回	-11.6713
在短期	-11.6719
危及	-11.6721
至关重要的	-11.6721
之地	-11.6726
太少	-11.6727
欧元危机	-11.6727
▁hurricane	-11.6727
数学	-11.6727
▁balkan	-11.6728
和繁荣	-11.6729
唯一一个	-11.6729
▁neutral	-11.673
了许多	-11.673
▁overthrow	-11.673
▁但这样的	-11.673
少数群体	-11.6735
多年前	-11.6736
许	-11.6737
货币和	-11.6738
而后者	-11.674
borne	-11.6742
的交易	-11.6745
▁也就是说	-11.6746
摆脱了	-11.6749
一本	-11.6754
愿望	-11.6759
深远的	-11.6765
月底	-11.6765
对以色列	-11.6767
移民政策	-11.6769
地带	-11.6769
双重	-11.6772
▁commissioner	-11.6774
step	-11.6774
这一进程	-11.6777
最近几年	-11.6778
▁symbolic	-11.678
题	-11.6782
的投资者	-11.6787
的研究表明	-11.6787
地球上	-11.6789
半个世纪	-11.6789
打开	-11.6795
▁有些人	-11.6797
国家中	-11.6797
▁knowing	-11.6798
能够让	-11.6799
的中心	-11.6802
▁feared	-11.6803
▁speaker	-11.6804
生产和	-11.6813
必须认识到	-11.6813
所说的	-11.6814
部落	-11.6815
压倒	-11.6817
众所周知	-11.6818
▁bailouts	-11.682
对它们	-11.6821
放大	-11.6822
▁costa	-11.6822
▁wild	-11.6827
英格兰	-11.6832
▁cease	-11.6832
▁perceive	-11.6832
一揽子	-11.6833
辞	-11.6835
的立法	-11.6836
迁徙	-11.6837
寿命	-11.6837
▁spoke	-11.6837
之间存在	-11.6839
燃	-11.6839
▁prosper	-11.6839
伏	-11.684
灭	-11.684
衰	-11.684
瘫痪	-11.684
计价	-11.684
尾	-11.684
▁mill	-11.6841
▁breath	-11.6841
令人惊讶	-11.6841
亚努科维奇	-11.6841
李	-11.6841
▁appetite	-11.6841
▁blunt	-11.6841
▁complacency	-11.6841
▁deforestation	-11.6841
▁enthusiasm	-11.6841
▁football	-11.6841
▁insolvent	-11.6841
▁intensified	-11.6841
▁storage	-11.6841
▁vague	-11.6841
在一定程度上	-11.6841
寒	-11.6841
灌溉	-11.6841
▁moldova	-11.6841
悖论	-11.6841
您	-11.6841
鸦片	-11.6841
▁instance	-11.6841
▁kennedy	-11.6841
▁movie	-11.6841
▁sachs	-11.6841
分崩离析	-11.6841
土壤	-11.6841
规避	-11.6841
傲慢	-11.6841
舰	-11.6841
顶尖	-11.6841
先锋	-11.6841
黑客	-11.6841
▁proposing	-11.6841
微观	-11.6841
▁sick	-11.6841
截至	-11.6841
的那	-11.6841
不难理解	-11.6841
▁allocate	-11.6842
▁favorite	-11.6842
发射	-11.6842
买单	-11.6842
站出来	-11.6842
▁breakdown	-11.6842
违背	-11.6842
henry	-11.6842
原理	-11.6842
通信	-11.6842
成效	-11.6842
和西方	-11.6842
空白	-11.6842
的网络	-11.6842
▁concentrate	-11.6843
动乱	-11.6843
温和派	-11.6843
种种	-11.6843
增量	-11.6843
精力	-11.6844
citing	-11.6844
华盛顿共识	-11.6844
▁replacing	-11.6845
过度负债	-11.6845
摆脱贫困	-11.6845
多边主义	-11.6846
如果不是	-11.6847
准备金	-11.6847
做些什么	-11.6847
公共品	-11.6847
做出反应	-11.6849
殖民地	-11.6849
▁eroded	-11.685
相当大的	-11.685
▁domestically	-11.6851
▁upper	-11.6852
▁tactical	-11.6852
公正的	-11.6852
比索	-11.6855
大脑	-11.6855
个国家的	-11.6855
▁stalled	-11.6856
表现得	-11.6856
▁freedoms	-11.6857
政客们	-11.6859
了一系列	-11.6859
的动机	-11.6859
活动家	-11.6861
sci	-11.6861
这个词	-11.6862
的净	-11.6863
是否应该	-11.6863
暴露出	-11.6863
vy	-11.6864
▁最近的	-11.6864
▁originally	-11.6864
的广泛	-11.6864
都不能	-11.6865
▁thatcher	-11.6866
的近	-11.6866
▁cra	-11.6867
适当的	-11.6867
长期停滞	-11.6868
▁undercut	-11.6868
▁clients	-11.6873
▁roots	-11.6874
前苏联	-11.6875
▁overlooked	-11.6876
贸易顺差	-11.6878
▁broker	-11.6879
58	-11.6879
很大程度上	-11.6883
服务于	-11.6884
生活质量	-11.6886
skill	-11.6886
▁venezuelan	-11.6887
信息技术	-11.6887
落入	-11.6887
内在	-11.6888
英国首相	-11.6889
对国家	-11.689
引入了	-11.6891
令人瞩目的	-11.6892
小规模	-11.6892
这三个	-11.6894
▁optimal	-11.6895
报告中	-11.6898
的过度	-11.69
▁radically	-11.6901
一如	-11.6902
profit	-11.6903
比方说	-11.6904
可以成为	-11.6904
▁foot	-11.6904
private	-11.6904
▁一位	-11.6906
▁officers	-11.6906
1960	-11.6908
德里	-11.6909
是基于	-11.6909
的正确	-11.6909
▁rain	-11.6911
可能将	-11.6912
cbo	-11.6912
▁globalized	-11.6913
▁grouping	-11.6914
▁graduates	-11.6915
改善了	-11.6916
的好	-11.6918
它可以	-11.6919
的愿望	-11.6923
elected	-11.6923
欧盟和美国	-11.6925
有超过	-11.6926
政权的	-11.6926
▁45%	-11.6927
▁materialize	-11.6927
不用	-11.6927
的不是	-11.6928
四大	-11.6929
批	-11.6931
表达了	-11.6936
法律和	-11.6937
知名	-11.6938
提供更多	-11.694
是无法	-11.694
的敌人	-11.694
世界中	-11.6943
大公司	-11.6944
的成果	-11.6946
▁再	-11.6946
经合组织国家	-11.6947
有大量	-11.6948
和宗教	-11.6951
bar	-11.6954
▁founder	-11.6954
流行病	-11.6955
不大	-11.6955
西方人	-11.6957
比以往	-11.6957
许可	-11.6961
改革计划	-11.6965
shed	-11.6965
成员国的	-11.6967
也是一个	-11.6968
中国经济的	-11.6968
my	-11.6971
▁advisers	-11.6972
的扩张	-11.6973
fall	-11.6973
国内生产总值	-11.6975
欧盟必须	-11.6977
▁fruit	-11.6977
▁aspect	-11.6978
▁shareholder	-11.6978
从而导致	-11.6979
来支持	-11.6979
▁fronts	-11.698
年全球	-11.6981
诊	-11.6984
全球金融市场	-11.6987
破灭	-11.6988
中心的	-11.699
这一方针	-11.6992
▁国际货币基金组织	-11.6995
会面	-11.6995
月初	-11.6996
高效的	-11.7002
▁我们希望	-11.7002
目前正在	-11.7005
can	-11.7008
中国需要	-11.7008
家庭收入	-11.7009
▁beliefs	-11.7009
般的	-11.7009
收入水平	-11.7012
oli	-11.7014
破裂	-11.7018
的范围	-11.7019
▁troubles	-11.7024
为中国	-11.7024
是完全	-11.7025
将受到	-11.7026
的回报	-11.7026
▁该计划	-11.7028
▁ports	-11.7032
ana	-11.7032
不一样	-11.7036
cious	-11.7037
但我	-11.7037
参与了	-11.7038
▁caution	-11.7038
▁constrain	-11.7039
prompted	-11.7039
换取	-11.7042
并通过	-11.7043
▁2019	-11.7043
途	-11.7044
version	-11.7045
影子银行	-11.7048
组成部分	-11.705
一半的	-11.705
能得到	-11.705
不及	-11.7052
无不	-11.7052
保险公司	-11.7057
quarters	-11.7058
▁doubl	-11.706
它还	-11.706
很少有	-11.7063
捕	-11.7064
▁特别是在	-11.7065
反常	-11.7069
一波	-11.7071
being	-11.7072
中扮演	-11.7073
▁strange	-11.7073
▁但即便	-11.7073
的辩论	-11.7078
▁inject	-11.7078
因此也	-11.7079
▁precise	-11.7079
的实力	-11.7082
▁decrease	-11.7082
民调	-11.7084
▁respective	-11.7085
▁egyptians	-11.7087
▁loud	-11.7087
抵	-11.7089
展望	-11.7089
劣	-11.7089
伴	-11.7089
杜	-11.709
舆论	-11.709
令人信服	-11.709
肥	-11.709
鼓	-11.709
状	-11.709
纵	-11.709
恨	-11.709
戴高乐	-11.7091
常任理事国	-11.7091
蓄	-11.7091
检验	-11.7091
肆虐	-11.7091
边际	-11.7091
阿里巴巴	-11.7091
regulating	-11.7091
▁academy	-11.7091
▁clarity	-11.7091
▁clearinghouse	-11.7091
▁evasion	-11.7091
▁footprint	-11.7091
▁gamble	-11.7091
▁hussein	-11.7091
▁invariably	-11.7091
▁liberia	-11.7091
▁outweigh	-11.7091
▁remarkably	-11.7091
▁santiago	-11.7091
▁spectrum	-11.7091
▁turbulence	-11.7091
▁franklin	-11.7091
▁guess	-11.7091
夸张	-11.7091
弗里德曼	-11.7091
▁franç	-11.7091
不足为奇	-11.7091
琳	-11.7091
背道而驰	-11.7091
菜	-11.7091
挑衅	-11.7091
背叛	-11.7091
▁mild	-11.7091
萨科齐	-11.7091
初衷	-11.7091
▁deteriorating	-11.7091
涌现	-11.7091
信奉	-11.7091
聚集	-11.7091
监禁	-11.7091
结婚	-11.7091
预警	-11.7091
▁magic	-11.7091
邻居	-11.7091
▁native	-11.7091
远景	-11.7091
感谢	-11.7091
布朗	-11.7091
货物	-11.7091
原材料	-11.7091
▁dirty	-11.7091
民主刚果	-11.7091
▁strip	-11.7091
政界	-11.7091
的一年	-11.7092
昔日	-11.7092
▁marginalized	-11.7092
挑起	-11.7092
▁resume	-11.7092
接纳	-11.7092
▁linger	-11.7092
合约	-11.7094
▁removal	-11.7094
程度上	-11.7095
▁justification	-11.7095
能源政策	-11.7095
▁foresee	-11.7096
▁distinction	-11.7096
▁lifetime	-11.7096
不允许	-11.7096
▁backward	-11.7096
▁更不用说	-11.7097
可供	-11.7097
仍然在	-11.7097
明天	-11.7098
▁democratically	-11.7098
人民币汇率	-11.7099
ility	-11.7099
▁invented	-11.7099
同一个	-11.71
重心	-11.71
对于那些	-11.7101
清楚地表明	-11.7102
贸易协议	-11.7102
的逻辑	-11.7102
▁tougher	-11.7103
将决定	-11.7103
最初的	-11.7104
▁sadly	-11.7104
灾难性的	-11.7104
最低工资	-11.7105
将不得不	-11.7106
合法化	-11.7107
▁dry	-11.7107
时期的	-11.7107
▁empower	-11.7109
手里	-11.711
▁inward	-11.711
▁recommended	-11.711
增值税	-11.711
的位置	-11.7111
得起	-11.7113
会继续	-11.7113
得到解决	-11.7114
必须得到	-11.7115
▁performed	-11.7118
不惜	-11.7119
▁decisively	-11.7119
▁formation	-11.7119
社会中	-11.712
带有	-11.712
不错	-11.7122
jack	-11.7123
在明年	-11.7123
发现自己	-11.7124
声誉	-11.7124
▁revelations	-11.7124
步入	-11.7125
到处	-11.7125
▁10-	-11.7126
在发展中国家	-11.7126
▁gordon	-11.7127
▁ali	-11.7127
▁governors	-11.7127
▁violate	-11.7129
mired	-11.7129
▁teaching	-11.7129
降临	-11.7129
documented	-11.713
致使	-11.7131
容	-11.7134
▁这次	-11.7134
ties	-11.7134
▁projections	-11.7134
高水平	-11.7135
zone	-11.7135
控制着	-11.7136
▁wwii	-11.7137
住了	-11.7138
大笔	-11.7139
形容	-11.714
该党	-11.714
▁fixing	-11.7141
的打击	-11.7142
一句	-11.7144
事先	-11.7146
新时代	-11.7147
不亚于	-11.7148
blown	-11.7151
的呼声	-11.7152
的信贷	-11.7153
的继任者	-11.7154
收入分配	-11.7154
金融改革	-11.7154
军政府	-11.7155
我们正在	-11.7157
既有	-11.7158
wo	-11.7159
▁farms	-11.7159
毫不奇怪	-11.716
election	-11.716
euro	-11.7162
▁infections	-11.7164
▁charl	-11.7165
soft	-11.7166
如果你	-11.7168
ched	-11.7169
▁qaddafi	-11.717
▁regulated	-11.7172
▁sole	-11.7173
有意义	-11.7174
▁diet	-11.7174
适当	-11.7176
▁prone	-11.7177
我所	-11.7178
工业化国家	-11.7183
▁blocking	-11.7183
在未来十年	-11.719
伊拉克的	-11.719
的领导者	-11.7192
不已	-11.7194
和资源	-11.7194
3.2	-11.7198
的民粹主义	-11.7199
是确保	-11.7201
▁($1	-11.7203
▁journalist	-11.721
可以帮助	-11.721
主要来自	-11.7213
▁attacked	-11.7215
将达到	-11.7218
层面上	-11.722
未经	-11.722
▁如果没有	-11.7223
▁1.5%	-11.7227
付出了	-11.7227
必需	-11.7228
2.7	-11.7234
的领袖	-11.7234
▁brother	-11.7234
的一步	-11.724
纯	-11.7244
的难度	-11.7249
有史以来	-11.725
▁stretch	-11.7251
而不仅仅是	-11.7255
▁而尽管	-11.7255
riad	-11.7258
经验表明	-11.7261
所发生的	-11.7262
这是个	-11.7262
这一切都	-11.7263
的福利	-11.7265
这种方法	-11.7267
开始了	-11.727
发现了	-11.7271
member	-11.7273
几乎是	-11.7274
过了	-11.7274
▁而如果	-11.7275
储备货币	-11.7279
受到威胁	-11.7279
把它	-11.7281
便已	-11.7282
将近	-11.7283
相关性	-11.7284
的积极	-11.7285
技术官僚	-11.7287
常常被	-11.7288
的梦想	-11.7291
的时机	-11.7292
iness	-11.7295
不一定	-11.7295
识	-11.7297
银行贷款	-11.7298
一笔	-11.7299
▁ec	-11.7299
怎样的	-11.73
将进一步	-11.7306
发展战略	-11.7308
认	-11.7308
竞选活动	-11.7309
印象	-11.731
为首的	-11.7312
rated	-11.7317
实际上是	-11.7318
可能被	-11.7318
这些风险	-11.7318
▁engines	-11.732
研究发现	-11.732
从根本上	-11.732
并以	-11.732
他们就	-11.7321
述	-11.7322
国内经济	-11.7323
▁traditions	-11.7325
却不	-11.7327
和消费	-11.7328
刺激经济	-11.733
其结果	-11.7331
▁mac	-11.7331
监	-11.7336
渐	-11.7336
民主党人	-11.7336
侧	-11.7337
▁integr	-11.7337
▁depreciate	-11.7339
▁romania	-11.7339
洋	-11.7339
勇敢	-11.7339
董事	-11.7339
的消息	-11.7339
tempted	-11.734
▁devise	-11.7341
并以此	-11.7342
皇	-11.7344
戈	-11.7345
140	-11.7346
▁broke	-11.7346
欧洲需要	-11.7346
▁bright	-11.7346
夏	-11.7346
奥运会	-11.7346
疾	-11.7346
稍	-11.7347
▁text	-11.7347
▁traffic	-11.7347
辅之以	-11.7347
仅次于	-11.7347
法塔赫	-11.7347
囚犯	-11.7347
世卫组织	-11.7347
▁responsive	-11.7347
▁alibaba	-11.7347
▁autocratic	-11.7347
▁celebration	-11.7347
▁civic	-11.7347
▁composition	-11.7347
▁corbyn	-11.7347
▁demise	-11.7347
▁despair	-11.7347
▁destabilize	-11.7347
▁einstein	-11.7347
▁forgotten	-11.7347
▁medvedev	-11.7347
▁senkaku	-11.7347
▁variable	-11.7347
招募	-11.7347
源泉	-11.7347
阿尔巴尼亚	-11.7347
efsf	-11.7347
▁fierce	-11.7347
▁osborne	-11.7347
▁radio	-11.7347
桑	-11.7347
▁broadcast	-11.7347
▁纽黑文	-11.7347
页	-11.7347
亚美尼亚	-11.7347
虚拟	-11.7347
搜集	-11.7347
肩	-11.7347
▁floor	-11.7347
▁evolving	-11.7347
迁移	-11.7347
赞扬	-11.7347
靠拢	-11.7347
在这样的背景下	-11.7347
结盟	-11.7347
坚守	-11.7347
薄弱	-11.7347
贩毒	-11.7347
广播	-11.7347
[...]
